[PAD]
[UNK]
[CLS]
[SEP]
[MASK]
"
%
(
)
+
,
-
.
/
0
1
2
3
4
5
6
7
8
9
:
;
A
B
C
D
E
F
G
H
I
J
K
L
M
N
O
P
Q
R
S
T
U
V
W
X
Y
Z
a
b
c
d
e
f
g
h
i
k
l
m
n
o
p
r
s
t
u
v
w
x
y
z
—
“
”
、
。
《
》
一
三
上
下
不
与
专
且
世
业
丢
两
严
个
中
串
临
为
主
举
义
之
乘
也
习
书
了
争
事
二
于
云
互
些
交
产
享
人
仅
今
介
仍
从
他
代
令
以
仪
们
件
价
任
份
仿
企
众
优
会
传
伪
估
似
但
位
低
体
何
余
作
佳
使
例
供
依
侵
便
保
信
修
候
借
值
假
偏
做
健
储
像
元
充
先
光
克
免
入
全
公
共
关
兴
其
具
典
兼
内
再
冗
写
军
农
冲
决
况
准
减
几
出
击
函
刀
分
切
刊
划
列
则
创
初
判
利
别
到
制
刻
前
剪
割
力
办
功
加
务
动
助
势
匀
包
化
北
匹
区
医
十
升
半
协
单
博
占
卡
卫
印
即
卷
历
压
原
去
参
又
叉
及
双
反
发
取
受
变
叠
口
句
另
只
可
台
史
叶
号
司
各
合
同
名
后
吐
向
吞
否
含
启
告
员
周
命
和
品
响
商
善
器
噪
四
回
因
团
困
围
固
国
图
圆
土
在
地
场
址
均
坐
块
型
城
域
基
塞
境
增
声
处
备
复
外
多
够
大
天
太
失
头
套
好
如
始
姿
威
媒
子
孔
字
存
学
它
安
完
定
实
审
客
室
害
家
容
宽
密
富
察
寸
对
寻
导
射
将
小
少
尔
就
尺
尽
局
层
展
属
峰
嵌
工
差
已
市
布
带
帧
常
幅
干
平
年
并
广
床
序
库
应
底
度
廓
延
建
开
异
式
引
弱
弹
强
归
当
录
形
彩
影
往
征
径
待
很
律
得
御
循
微
心
必
志
快
念
态
思
急
性
总
恢
息
恶
情
想
意
感
成
我
或
战
截
户
所
手
扑
打
执
扩
扫
扰
找
承
技
把
抑
投
抗
护
报
抵
抽
拉
拓
拟
拥
择
括
拼
持
指
按
挑
挖
挡
挥
振
损
换
据
授
排
掘
探
接
控
推
描
提
插
搜
摄
撑
撞
播
操
擎
支
收
改
攻
放
政
故
效
敏
教
敛
散
数
整
文
料
断
斯
新
方
施
旋
无
既
日
时
明
易
星
映
是
显
普
景
晰
智
曲
更
替
最
月
有
服
望
期
未
本
术
机
杂
权
材
束
条
来
板
极
构
析
林
果
架
某
染
查
标
树
校
样
核
根
格
框
案
档
梯
械
检
棒
植
概
模
次
止
正
此
步
殊
段
每
比
民
气
水
求
汇
汉
汽
沌
没
油
治
法
泛
波
注
洞
活
流
测
济
海
消
涉
液
深
混
清
渐
温
游
源
滑
满
滤
漏
演
潜
激
火
灰
灵
灾
点
热
焦
然
照
熟
熵
片
版
牌
物
特
状
独
献
率
环
现
球
理
生
用
由
电
画
界
留
略
疏
疫
病
白
的
益
监
盖
盘
目
盲
直
相
省
看
真
眼
着
矢
知
矩
短
矿
码
研
破
础
硬
确
碰
磁
示
社
神
离
私
种
科
秘
积
称
移
稀
程
稳
究
空
突
窗
立
站
竞
章
端
符
第
等
策
签
简
算
管
簇
类
粒
粗
精
糊
系
素
索
繁
红
约
级
纳
纹
线
练
组
细
织
终
绍
经
结
绘
给
络
统
继
续
维
综
缓
编
缘
缩
缺
网
置
署
美
群
考
者
而
耗
耦
联
聚
育
背
胞
能
脉
脑
脸
膜
自
至
致
航
般
船
良
色
艺
节
芯
若
英
范
荐
荷
获
著
藏
虑
虚
虫
蚁
融
行
衡
补
表
被
裂
装
要
覆
见
观
规
视
览
觉
角
解
触
言
警
计
认
讨
训
议
讯
记
许
论
设
访
证
评
识
诊
词
译
试
话
询
该
详
语
误
说
请
读
课
调
谱
象
贝
负
质
费
资
赖
起
超
越
趋
趣
足
距
跟
跨
路
跳
践
踪
身
车
轨
转
轮
软
轴
载
较
辅
辆
辑
输
辨
边
达
迁
过
运
近
还
这
进
远
连
迟
迭
述
迹
追
退
送
适
逆
选
透
逐
递
途
通
速
造
逻
逼
遍
道
遗
遥
遮
避
邮
邻
部
都
配
采
里
重
量
金
鉴
针
钥
链
销
错
键
镜
长
门
闭
问
间
阈
阐
队
防
阵
阶
阻
际
降
限
院
除
险
陷
随
隐
隔
障
难
集
零
雷
需
静
非
靠
面
音
页
顶
项
顺
须
预
领
频
题
颜
风
飞
馈
首
马
驱
验
骤
骨
高
鲁
齿
＂
％
（
）
＋
，
／
：
；
##h
##a
##r
##d
##i
##n
##g
##0
##M
##S
##P
##B
##R
##I
##K
##F
##C
##O
##V
##N
##u
##c
##k
##l
##e
##1
##p
##t
##D
##A
##b
##s
##7
##5
##m
##9
##4
##2
##E
##T
##G
##U
##w
##y
##6
##L
##o
##Y
##W
##Q
##3
##X
##＋
##8
##Z
##J
##v
##f
##x
##H
##z
##er
##in
##en
##on
##or
##ti
##et
##an
##eb
Web
##al
##ar
##00
##es
##ed
##ent
##el
##ro
##at
##ic
##ML
##as
##ing
##ri
##tion
CA
##is
##ec
##it
##ter
IP
##ac
##re
##IS
##CA
##ab
In
##le
##he
##SP
##st
##ol
##gent
##ation
20
XML
##ap
##om
##oS
##ut
MA
##LA
##ow
##ul
SV
##nd
Agent
200
##ID
##PS
##oc
##am
##ou
##il
##em
##DA
##od
##PU
##MS
QoS
##im
##erv
##id
##ag
##CP
##op
##og
##2P
##AC
##net
##ch
##GA
CAD
PC
P2P
##ect
201
Inter
##av
##us
SVM
10
BP
##ce
##ig
##ad
##NN
##SS
of
##ET
##etri
Internet
##ork
FP
##ess
##EE
##AR
SI
Petri
the
in
3D
##OM
Lin
##ux
##SA
Pro
##ir
##CT
##ans
Ad
##PI
PS
##ind
AR
##ava
and
##if
##ine
##tic
##CM
##DM
##ve
Java
##pen
Serv
##ual
##FT
Linux
##CS
TCP
##PE
##ay
##OS
##ur
FPGA
GIS
##ows
Mat
##ot
##ont
##indows
##RB
##PC
CT
##os
##LS
Open
RF
##lab
Windows
##tr
##AN
19
##SM
##ased
##un
##ice
##DS
IPv
##eg
##work
CO
##MM
CPU
##20
##PN
##ES
##orm
##ity
##ash
pro
GPU
SO
##omp
##MP
##ov
##SB
##DF
RB
RT
Matlab
##NA
##IM
ST
##PP
##tive
##ob
##ink
12
CC
##ith
UML
11
Aut
##age
MAT
##QL
WS
##LAB
##eans
Ch
##yst
##ree
##ure
##ark
##let
##DL
RFID
##ion
##man
##000
MATLAB
##CC
##DP
##PEG
##AM
DSP
##NS
Vis
##ystem
##oo
##RP
##ST
##ier
##ev
IPv6
##pp
St
PSO
##ell
##etwork
NS
##ort
Map
##uc
##and
##odel
##ulti
##OD
based
##BS
SD
15
##IC
##ord
##iz
Visual
##ff
Sp
##EM
##ear
##ang
SA
##um
##ache
##RF
##our
##cess
SS
on
##MA
16
##FS
##ER
##ens
##IP
##CAD
##＋＋
##TP
PCA
##form
Sim
Auto
##her
##abor
##IN
##ack
to
##LC
##VM
means
MP
##ie
Sh
USB
CS
##ib
Gabor
Cont
Ex
Ar
##war
SQL
##AP
##BP
DCT
##ee
##ED
VC
##10
PID
DD
##ub
##ra
##ram
80
Ac
##ast
##ist
MS
##ate
SP
SIFT
##TS
##DD
VB
SAR
Be
##est
CAN
##ax
GPS
##ke
##of
MAC
##EP
WSN
And
##RS
30
##roid
##ver
##RBA
##all
##GB
CORBA
RS
100
##rap
##AS
AutoCAD
##ip
##PSO
Par
##nal
al
##edu
Cl
Fl
##ts
25
MR
##ue
##ithm
##ian
J2
50
##gor
##ys
##igh
DT
##oost
DNA
Android
##gh
##gorithm
##MD
##RL
##RM
AD
##ex
##IE
##ata
HLA
##educe
MC
##ace
JPEG
SM
VR
ID
HT
AT
Al
for
##per
ARM
##ment
##oft
##ech
##64
##ann
API
DC
NP
##BC
##oop
##th
##zier
##GIS
##OP
##IA
AC
Del
##EC
##ach
GA
Server
##80
##ase
ASP
Bezier
DS
Simul
IS
##yn
Lab
##ni
Multi
RGB
##rans
##GL
##VC
th
LDA
J2EE
CP
AS
AP
##ough
##se
##AT
##ard
##iff
##raph
is
OS
##ication
Service
90
##ber
SN
Ap
##EL
FCM
IT
HS
##ock
##ift
13
##orks
##LE
##pl
VPN
Sc
PK
CM
##FC
Cache
##ence
##ank
##12
comp
Comp
Re
MI
Int
##rac
OpenGL
##ori
En
##Reduce
Mark
##olog
Simulink
##esh
PLC
Hash
st
IEE
##ean
##CI
SU
network
MapReduce
sh
DB
CCD
##pt
##YS
##MF
Log
IEEE
con
##ization
##32
21
##ourlet
##istic
DA
LE
##ile
Sol
System
RBAC
##RA
##low
IC
##RC
Had
##ices
##ection
##HT
##VS
##ph
##ector
agent
RBF
GP
##ass
CF
##2000
##ware
LS
RO
CB
##rid
##ust
##EA
199
##LM
##able
SOA
##lo
system
##Works
RSA
##up
##RT
Hadoop
##riori
##ma
##oin
NET
Hough
Model
##LP
PCI
14
32
ANS
##oC
Net
##tim
LBP
Network
Contourlet
CNN
ERP
Markov
DP
DV
CAM
UG
ex
##ON
##200
##24
##US
##ant
Apriori
##bect
##LD
40
##NET
COM
18
##rol
2000
ANSYS
Con
##line
model
##MC
##50
##HP
##ia
ad
##ode
tree
2009
##isher
##IF
##ology
re
##ey
AB
##ary
PR
##ros
##ud
##CD
##ance
##Net
##rib
KNN
##old
2008
algorithm
##ign
##ower
##ge
CD
C＋＋
web
SIP
##Hz
NU
##GP
CAPP
##NC
##TL
##aus
24
##ale
##OG
RA
RSS
##IEW
MPEG
MD
en
##ODV
##io
hoc
Hoc
Diff
cl
##ical
##tt
im
##OA
##evel
##out
##ly
##BM
ADA
Solid
SR
Fisher
##ain
EM
Mic
##ilter
##ern
17
##ore
sp
##ers
##eto
DDoS
##EB
2D
CU
Min
IPS
PKI
Sn
##ik
SC
##WT
##isc
##racle
LabV
HMM
##ime
##TA
##ator
##UI
##earch
Su
##der
##NR
Ne
The
SDN
60
##ky
##nt
##formation
##oot
Hop
##DE
##art
##ACH
##anny
##uster
##ient
##ution
##ysis
##60
CAE
NC
cont
##ris
##IT
##30
##ite
LabVIEW
Oracle
CG
##ix
Pareto
##ple
##51
Zig
##ress
##MI
Dir
ADAMS
##ool
VRML
Un
serv
##asic
##ati
##irt
MPI
Canny
##3D
Services
##ial
##ight
LEACH
##IR
AODV
res
##uct
TP
MPLS
ac
##ery
##enti
##cel
su
##nalysis
##KF
##DMA
TF
##OC
WebGIS
##iew
multi
Str
95
TS
##enc
Power
Mesh
##ition
##ement
com
sc
##320
PDM
##pport
##eer
##ated
##ptim
Active
DM
##ega
DE
as
##tran
##RBS
Har
DR
with
EC
##zz
22
##LAP
Ada
##WL
Flash
##ps
##ene
##ry
##mm
##ener
Mean
##DT
2010
##Rank
##fer
CV
Word
##ake
##res
NURBS
Co
ch
Tree
##end
##eth
##ich
DF
min
##ty
EP
##WS
##iv
##ail
Excel
Bay
IDS
##aS
Win
26
SNMP
##toc
##achine
ORL
Top
##elet
AES
ne
##uzz
##40
##ak
ICA
##erm
##row
##ono
##GS
##ocal
TMS
An
TSP
##cl
##alman
##AV
SURF
TC
PCNN
##OR
##16
##act
23
SPI
##Boost
##FP
##tsu
Th
Logistic
2005
##chit
##ribut
MB
##ble
2013
##ethod
##Serv
##ational
AM
UCI
Kalman
RDF
##gine
##angu
MVC
ar
Otsu
##OF
##DB
AU
##ics
##ning
trans
data
##ive
El
##OT
RP
##ynam
Data
Rad
##eat
IPSec
##uil
PI
Vor
Wi
DL
Obect
##LAN
##anguage
2007
##aun
##iel
##son
##TM
##DR
RSSI
##onoi
##oint
SVD
par
TMS320
##cri
##11
##TC
CN
Voronoi
Qu
Tr
2011
NS2
PH
##ility
inter
Bayes
ME
##DC
##tocol
OLAP
##anag
##pro
Trans
##ath
64
70
Ph
##WM
##aunay
264
##aaS
##ost
OWL
##chitect
MIS
##stra
int
NAT
28
##ented
2012
LED
are
Delaunay
##RE
IPv4
Arc
App
Pl
Basic
Go
an
UDP
Bl
##Bee
PSNR
##DI
##ative
As
FC
Harris
AdaBoost
Ge
99
NT
Micros
or
HTML
GUI
Based
GPRS
net
MANET
HSV
##me
MF
ZigBee
VC＋＋
##ory
Access
##chitecture
##ox
##ous
WEB
2006
##obile
##gram
##aper
Microsoft
##uter
##HA
CMM
DEM
CUDA
##ield
##kyline
##85
PM
##LO
NSCT
##RU
2014
##ANS
BGP
FFT
##ency
##uts
##25
PP
Virt
RTI
TM
##ext
##FM
##ong
##earning
802
Im
us
##sh
##anc
##phi
log
##IB
##ular
##ms
IN
process
##ook
FA
##lex
GM
ES
MAP
CH
app
de
For
MO
##3C
Ret
dist
ROI
35
98
##CAN
##eep
##esign
##ill
##ide
##FD
Hell
##hema
VH
2015
3G
##onent
##anagement
paper
##RI
##oftware
##ynamic
27
##89
##14
##13
##LT
##ural
MRI
OF
Vo
##ptimization
##echn
##unc
##one
Delphi
SoC
##ein
Vega
##ocket
BOM
##orr
SOAP
##are
MT
2017
Com
Hu
HOG
IB
Max
SolidWorks
##uzzy
method
CI
ActiveX
FS
Page
Snake
Ha
SE
Algorithm
##ied
Goog
HTTP
Direct
SOM
CE
##ww
LT
##ron
PB
SLA
##ributed
GB
Res
Zer
##STM
##uilder
SSL
Control
We
##lication
##outing
Vx
IM
RANS
www
##ized
AA
BI
##15
Lap
SW
be
##ies
##tern
##CL
Hellman
##HS
MAS
Google
Mod
time
##KE
##min
##olution
##ull
EMD
##aptive
##tranet
wh
##ption
##CSI
SL
Ver
##ench
Spark
CPS
##inex
LB
MM
vector
Sm
##ange
str
RANSAC
DNS
##yb
JSP
Le
##bit
45
Diffie
Mont
##rin
2016
##kit
cache
##ustering
service
PA
STEP
##nike
##unction
29
PD
ISO
##auss
CL
TV
Retinex
Grid
##flow
GS
disc
##arch
CAT
DWT
top
##ound
Zernike
II
##ague
BPEL
EA
##ttp
Lapl
sim
##19
CR
by
##ream
Car
Yale
96
De
Engine
##ric
##reu
MIM
Intranet
ND
rec
##ability
TD
un
##Sh
Haar
300
LSTM
Shift
LD
Gauss
STL
VHDL
AG
QR
##riented
CCF
Sch
Gr
WW
Mo
Means
TO
##70
Chord
On
iS
2004
ML
CAS
SVG
RC
##ME
PageRank
Intel
OPC
Vague
##PA
##yp
##LAS
pl
AV
OPN
##inux
URL
##ticle
ELM
##rame
ADO
XP
analysis
##aboost
Struts
##warm
CMOS
##ensor
##dB
2003
this
##cript
97
##rier
tr
##BA
##fin
##802
PE
we
##ging
##ocation
##andom
LCD
##str
##18
##log
33
AHP
##JB
##obel
RAID
##St
##53
WWW
##uality
##PCA
##ograph
RED
LSS
##ision
##udio
Rec
##mb
DES
##wit
##ire
Kin
MFC
##QM
TI
##EN
RM
MDA
Sink
Skyline
##ANET
OG
##uri
##2C
##ffic
L1
Peer
information
Adaboost
500
Graph
LA
sink
##attern
Deep
control
DBS
http
NA
WLAN
##Flow
Dik
Ly
SIM
PL
##te
SVR
Fast
LOD
Ont
##DBC
Kinect
det
##lob
DOM
LBS
##face
##CF
##ler
OPNET
ECC
HP
##ole
128
IEEE802
85
##ese
BS
##ser
TR
##OI
BM
mat
Dikstra
IA
##ISR
##bert
##evelop
Dist
GSM
KDD
##ood
Process
PT
31
OA
Chin
##ource
##gramm
##CW
##eless
IDF
NN
VANET
##ating
GMM
SaaS
Cam
Mobile
ind
##erg
Arn
Sobel
##ader
support
##IST
##ult
##urity
86
C4
FT
##unov
##eature
IG
S3C
Arnold
HB
PF
SAN
88
Language
##apunov
SF
##99
EJB
Li
PCB
##Cl
##86
machine
Tool
##sim
##XI
##tif
CPLD
Lyapunov
Boot
FM
mm
##sp
##mark
AN
MRF
##bs
GF
IR
Uni
##ug
OC
##yc
HM
cn
rel
##aster
##vers
BT
DoS
GML
51
Qo
##OL
VxWorks
IBM
##nm
##echnology
DBSCAN
##IL
##ish
93
L2
OM
Rob
##rop
##oud
ATM
RAM
aut
##dor
##ourier
##DDI
OFDM
Sec
##egr
##mun
##atab
##riv
##irst
##ireless
ICP
##roup
000
CRM
##RAM
##ker
##UP
##UC
SOC
##oid
MAX
CFD
Filter
##tical
##CAM
##DPCA
ETL
##ube
GL
PDF
##IDS
Ontology
Fourier
Vector
max
##SQL
##CE
EE
MV
##ton
Radon
Hil
SCA
##uery
CSCW
Monte
##CH
##port
VBA
DAG
##Sim
##oe
HA
##v6
##iss
##ask
##ucture
##ah
CGF
TPM
GEP
Met
##FA
##ering
DSR
New
36
94
##ified
44
ARP
DHT
ISP
##vent
Ind
##ilog
##DFS
Ext
VoIP
DCS
EDA
Boost
##ring
2018
MEMS
CPN
EF
LM
##22
##rix
FL
GE
TA
##RD
Ag
over
##emory
##eng
NSGA
Schema
##atabase
Haus
UC
col
SSD
75
Bi
Time
##IO
##pect
##＋1
##rom
HSI
Computer
FIF
##pos
##volution
Analysis
Cur
CATIA
CRF
Fuzzy
##eed
APP
##ther
##ference
MIMO
##dorff
##VD
##edia
UDDI
VM
can
Hilbert
IEC
OB
##ave
89
##UL
##orl
MSC
that
DW
Pre
TB
local
##XP
##usion
##ally
Bit
##red
DH
GT
LSB
Local
##inary
iSCSI
Tri
##ois
##rowth
92
##eas
SIMD
##reuency
HE
QPSO
ORB
PDA
Support
Hausdorff
1000
ER
Rel
##NI
##ick
Col
FTP
##Cr
Verilog
JA
##In
FIFO
BF
##works
AF
reg
##ding
256
AOP
IET
##eu
##52
SPE
software
##duc
##ital
RTL
Pol
##sc
Information
##echan
##90
##ta
WSNs
##Script
##ping
Virtual
##rinc
##ience
ABE
SB
##WA
##ierarch
DTD
##blem
NI
PN
##imum
65
protocol
GR
##denti
##max
##loom
AUV
ADS
BA
##osition
comput
##ergy
Carlo
LSSVM
C2
LP
My
NL
SH
##MHz
##val
##ade
transform
WDM
learning
SAT
##EF
Protocol
MCU
##atch
##ification
FR
Socket
bit
filter
per
##100
##28
CSP
OP
##ved
networks
Mar
mod
##ner
Architecture
F1
WebServ
MN
##lay
##ible
IF
##ret
##rincip
FD
##17
##ential
##84
##berg
##anced
2DPCA
BR
Cre
PWM
##AVA
##ernel
sec
which
ET
HDFS
diff
optimization
##UT
##eman
AdH
Client
VP
##GM
##over
##naly
34
ABC
ED
IO
2001
GN
TL
Real
Si
pres
##bor
##ension
Dem
Machine
##oss
##allel
SRAM
HI
OR
PET
##igital
##wo
##ome
shift
access
48
EB
##UV
##pend
##IMA
##INK
gener
it
##ons
##SMA
LDAP
Cor
OpenMP
JPEG2000
HVS
SQ
##ISC
This
DSS
##au
RTP
400
DMA
dynamic
key
KPCA
Per
develop
architecture
TT
##ne
##RR
##VP
##WB
##ISP
##SAN
hash
##VF
Gener
JAVA
Management
##tiv
55
TE
peer
##eh
##emet
DTN
1999
LC
##hor
##Builder
##ari
ART
##atial
Bloom
Lo
##mann
##orld
BB
NB
NG
Studio
LTE
01
Luc
WT
AQM
It
graph
##II
##alue
##enchmark
DIC
Reduce
##uff
clustering
##ography
##VR
##ule
ArcGIS
##LASH
##mbed
Hy
VS
##GE
##velet
UKF
##air
##ART
component
TMS320C
ASM
CDMA
WAP
out
##raw
Glob
sel
##mon
##ubl
DTW
APT
VT
design
##98
##JA
CBR
Disc
##NF
JS
function
##GC
##reg
distributed
TH
##ARX
Hopf
AI
IMF
IKE
Key
NoC
##SPF
##IPv6
Cloud
Comput
Intemet
China
VL
##rimin
##ighbor
AL
##ike
GC
LRU
XS
##oh
ext
org
Or
new
38
##alized
BIM
MCS
Reg
##NG
##ism
##ures
Det
LMS
RNA
gram
##LSI
Ker
##DH
2002
##ray
##XA
##XML
##inx
##action
##stein
##ross
CNC
Ed
Ham
NAS
Sig
##AND
##eter
application
##EST
AT89
MDS
level
Spring
class
Level
co
##put
##33
KD
ms
set
##Pro
##bo
##eck
MP3
adaptive
Aax
CCA
sub
DLL
Bayesian
Curvelet
NMF
##iB
##DV
##ayer
AdHoc
MSP
ph
##af
##ape
SIMUL
LR
obect
##edul
##ramework
MES
PHP
RE
management
##ep
##88
##fficient
KL
WM
language
##Sp
JavaScript
##atic
STM
le
routing
##KS
##bus
##ype
S3C24
Dynamic
ICM
Learning
##press
##oy
##oding
##ibern
PU
VV
##ok
MD5
87
Cy
EPC
word
197
all
Creator
##led
DBMS
Flex
2019
##acket
##enetic
37
##arian
##rou
##att
##ulation
Kri
RR
Ren
UP
line
##acian
##evice
SIMULINK
##ibernate
OSPF
SG
des
##Cb
##ert
LL
Set
pattern
150
Transform
DO
RMS
Sl
UM
##bps
##idd
1553
WF
##we
##gramming
##easure
EI
Fi
Herm
LI
##ror
##TV
DBN
Gaussian
Dom
DFT
She
at
##hoc
##CV
##ley
##proved
##rincipal
dir
##fo
##ecision
OGSA
##dentif
Routing
##now
Laplace
FLASH
Hess
SMS
nm
##ACS
ACO
##rete
Py
Gib
VLSI
Link
OpenFlow
Networks
DI
Off
Xil
hard
##enter
##ingle
##imension
image
SPIHT
##ybrid
EKF
OT
Syn
##ose
CRC
EDF
Ni
att
Autom
##ournal
SSIM
##acking
##orrent
PIM
##hop
##KA
##munication
Xilinx
42
ISA
LLE
NAND
##ond
Prof
LF
##actor
Laplacian
Gibbs
Bag
Bern
Mov
MOD
Random
UAV
oriented
##por
Component
Lev
Swarm
##KI
##Fi
##lock
BIOS
HBase
00
DSM
Tur
##ony
72
DRM
HR
map
ObectARX
Application
Fortran
differ
LPC
Optimization
##NP
##ents
##ective
Adaptive
EL
man
##ture
##44
OD
##VE
##les
ADC
research
##ichlet
##strain
Distributed
Gre
##ampl
##echni
##ehic
91
Oriented
med
##atform
##uction
DCOM
MFCC
43
Ecl
FSM
##aw
WC
virt
##enz
Chan
Image
Lib
NF
PO
SHA
Software
mail
non
##HM
ass
39
Design
IFS
##get
##orage
Space
Hermite
FO
HC
Port
Pri
Boosting
Is
IE
Man
##ERNET
DICOM
FER
##ao
##iron
TOPS
JDBC
Lor
##ching
problem
RTT
J2ME
##ootkit
##ended
Cr
C3
Mor
Sel
WP
high
##hem
BLP
Jac
MQ
NE
mean
##Query
##rain
MIB
neural
FAST
CIMS
##ironment
BC
BSP
Di
Ether
OL
ed
feature
##ools
SLAM
##pag
##23
##ZW
##urst
real
WiFi
AO
Hibernate
KF
LV
OO
UNI
##here
##beros
C4ISR
Hopfield
Lag
Mold
SY
Search
Syb
##BE
##FF
##Web
##erial
##uss
BO
CSS
NSS
##77
##vironment
##urr
OSG
##ighted
##eduling
virtual
120
TDMA
##AL
##55
one
kNN
##ras
Des
IV
el
##ting
##31
##ica
##ages
Micro
LW
Post
Quality
analy
##ely
##ided
Flow
MIT
##ycast
CCS
COS
LPP
Red
Wat
##iti
##pri
##ino
##cription
Modbus
BitT
HL
dB
##Sc
##olt
Snort
##ission
##pagation
Med
##UM
##amal
##MAX
Cluster
Kerberos
Hessian
TOPSIS
Lorenz
Qt
Work
fl
CAI
##ixel
detection
05
Rap
Rough
##so
##ultic
1553B
SMP
##emantic
Hyper
NO
Non
##ession
Univers
AVS
Brow
PLS
RPC
from
##ND
ID3
CDN
Sur
random
##rror
##onal
##EMD
Elect
FF
RISC
Zh
field
search
##HC
##ount
STK
Author
YCb
del
growth
has
##erk
Adhoc
DFA
EX
TIN
swarm
##ecomp
##IDF
##avelet
Servlet
propos
##thon
SNR
Apache
Dirichlet
BitTorrent
LAN
TLS
VSM
##ds
##GD
##35
PCM
##OST
OpenCV
systems
600
LIN
MST
PIC
technology
##gin
##uation
SVDD
##ief
##echanism
Master
mobile
Prot
WSDL
AGV
Builder
NM
Ts
VLAN
##ness
##cry
##erver
Class
ARM9
OLE
##430
##iter
##ensity
SPAR
RS4
particle
##ENT
##prise
GD
PDE
World
##Ns
##WP
scale
IETF
STM32
PV
SET
##bi
##ena
##ERT
##ipse
MySQL
BBS
FIR
SIS
rad
##etric
##formance
processing
##ariant
Lagr
Bro
Fe
##NT
##39
##ever
Particle
Flu
SUSAN
57
67
DX
Fr
Gam
##ki
##back
##fl
STC
rep
PowerBuilder
BL
OTS
View
Wireless
##read
##CAS
LK
SPS
two
##ues
##ush
1998
##pster
##DTD
WA
WIN
##ded
##IG
##uard
##lin
##54
Ab
AIS
ICT
Pr
##filter
##heme
##oci
All
Science
Security
FERET
82
LSP
Sun
dis
sig
##mer
##232
Anycast
##ulticast
360
76
database
##BO
##set
DiffServ
##redic
Dempster
AE
MID
Pi
Sensor
memory
inv
ARMA
##atio
##Shift
Office
02
ANN
Sam
Sub
fuzzy
##ium
##off
##itor
Super
##ideo
AH
AVC
DIS
DDS
NV
RD
WebService
46
66
CSMA
IMS
LU
Xen
freuency
##MB
##terprise
cons
Python
ABS
HIS
High
ODBC
##Gamal
##eta
Phot
SCADA
47
AJA
First
GVF
Conference
PROF
Engineering
AT89C
##imensional
B2
HDL
Land
##ai
##ICA
##amir
VB6
MSP430
78
84
Benchmark
DOS
form
wireless
##essage
ROC
LDPC
YCbCr
54
83
Cell
ISS
REST
Vese
DCF
485
Att
Digital
MH
MPC
PMI
##AD
##vid
Stein
integr
##ierarchical
Moldflow
Bus
back
first
test
##rad
Stream
RS485
Bo
ECA
ON
up
##View
##ope
State
Shamir
At
DY
Ep
He
MCM
Se
##ateg
##642
computer
mining
Trust
Function
MMS
P3
Ti
US
pol
##national
##BF
Matrix
Solidworks
##atis
EAI
Toolkit
security
56
Mc
Path
Rank
techni
##iness
##arity
##astic
##omm
BPM
SMT
##ression
##ength
##ecomposition
74
National
VI
work
##BR
##IW
##ins
##RBAC
##annel
EPA
development
Bagging
CSA
Tor
Text
more
##duct
##cre
ARIMA
SDH
##pha
DRAM
UNIX
AJAX
Ball
IHS
Sy
Clustering
multiple
BN
Over
##2O
IPC
IPTV
##acter
##och
Neural
Eclipse
4ISR
Dis
Point
RL
RNN
cm
sensor
##uit
##66
##xy
##entation
Inf
##egas
SOPC
also
ABA
##shift
Fac
Group
PLM
Wind
ab
eff
##Map
##Tr
##ention
##odes
##cept
AMES
##mbedded
Kriging
##nowled
Free
Feature
FDTD
Wang
skyline
##az
##dition
##1000
##TR
##GG
##earest
##ense
Integr
##mail
Ass
##fined
##cryption
52
Br
CK
Device
LQ
ROM
open
##VI
##96
##UE
##WF
##tition
##nder
##dentification
2n
Back
MPP
Not
PPI
POS
Qos
SPC
TCAM
Works
mesh
##hen
##km
##mission
##LDA
##uring
##anning
PKG
Smart
HO
HD
Soft
##ll
Intr
##rypt
parallel
discuss
41
Ear
GO
PSP
binary
link
##vanced
##ogni
##ensus
Express
IBE
autom
CIM
DOA
How
MG
Technology
##ham
##iver
##TI
##ane
CO2
SPM
ECG
PHD
Corel
NSST
CCM
EH
##enberg
##arge
##2010
SDRAM
##ize
Modeling
Geo
appro
ESB
Jul
OCT
RCS
measure
##78
##56
##edy
CTL
WordNet
Elman
Block
Shear
CIE
IMM
P2
Sw
TTC
some
##iny
##LSR
RTS
intro
##pendent
OTSU
63
Hurst
QS
location
sch
vis
##94
##ford
##uck
##128
EEG
Lucene
Globus
##urrent
##nowledge
So
XQuery
dom
value
##Grid
##ribution
XPath
path
##WO
##andard
ARM7
Huff
##struction
##tific
VTK
ABAQ
Gn
OPE
its
like
sol
##IQ
prot
##MAS
Multiple
shell
index
AMESim
68
Pe
PACS
Te
oper
##ault
##ral
##RNA
##IFT
##pon
##ise
SAS
MIPS
DPA
CVI
Browser
ABAQUS
Na
Pattern
Test
pre
##atent
##overy
Stack
RS232
CGI
used
One
MU
##DN
##map
##91
##way
##ini
##ature
##ward
DDR
Rep
reu
##IBUS
##orrel
863
Bernstein
analyz
Lagrange
DXF
5G
BAN
SEM
Tw
Tom
##gg
##76
##oad
##eatures
Camshift
Nios
G1
HF
IMA
Job
XY
##ines
Energy
##2005
##akes
##Clinux
Steiner
Nash
Rootkit
VO
##itive
##01
##ected
SPA
Systems
Applet
AADL
OCR
Turbo
Julia
Huffman
ALO
CW
Cal
JX
SPN
UWB
##mp
##En
3DS
##ella
PRO
Unity
services
S3C2410
SYN
PROFIBUS
73
Cube
CERNET
DSA
point
##58
##PSK
PCR
TFIDF
TSV
distance
Newton
linear
Movie
TTCN
62
77
ADL
ITS
MOS
PXI
##uf
##ACE
PSF
SDG
##ument
##8051
Multisim
server
Edge
Fre
VRP
not
##aracter
##ula
##opy
Chen
##ips
##ribute
##OTE
Engineer
##witch
Can
Code
group
##2D
Linear
ACL
order
CMMI
58
81
Wal
tri
term
##CO
##QA
##HE
##tera
##tructure
RBM
RSVP
DPM
##Show
##ehicle
BE
FB
GCC
WMS
##rary
##CR
##con
##ted
##bee
##GR
##ination
##acy
##ame
RFC
MapX
250
user
structure
##volutional
C3I
Gu
MHz
TPC
##ACK
Spatial
energy
Virtools
##oids
Rapid
Fluent
BD
Da
Do
Vol
Vegas
ns
##95
##ote
ICMP
ECT
Loop
Mel
QQ
YA
kernel
##ius
##cm
##ared
##lement
DVD
Index
computing
##oltz
232
Gro
Tiny
##lier
##GPU
##icy
##river
Ins
##ELM
CMU
AUC
##grammable
performance
800
EDI
FI
Memory
PIE
QT
WB
##ya
##arse
##eview
SSH
stud
Detection
##rastructure
MW
NH
RDB
SK
##gen
##oney
##own
##240
spec
59
NIST
User
VF
VOD
##61
##v2
##aging
VisualC
##ensible
CPA
LEO
CDH
IND
##Info
Cat
Sk
SCSI
##KM
##GUI
##tit
##ations
##ilarity
##emic
Altera
Mini
DirectShow
Ethernet
C8051
Fin
Freuency
Mon
XSS
##ROM
##DO
##Gen
##hev
##labor
##egment
##annon
Differ
using
DHCP
University
ALOHA
AW
ACM
Cook
Method
RMI
SDL
TFT
##DSP
##sec
##48
##asc
##ogram
Prote
##acker
unit
Ant
Cross
GRA
Lon
NX
PAR
##API
##EK
BPNN
SIR
Programming
prob
AutoCAD2000
ACE
ASIC
Unit
HITS
##iBe
Proteus
Cu
sm
##Ch
##27
##29
##ings
RTCP
##ICE
##INC
Unified
QoE
ESP
IDL
hop
have
rob
##the
##21
##2v
##aling
110
##elli
import
Fox
ViBe
XAC
block
sn
##hift
##ater
CCN
Improved
Grab
FLU
##oise
Bar
Binary
March
TPS
##FO
##ute
##DAR
##erving
##change
CTS
##2013
##FSR
tool
##ooper
constrain
space
self
JXTA
DAR
FAT
Fuzz
Field
Lee
tem
##utella
##izing
VLIW
##idden
Authorware
Shearlet
Form
Hybrid
Kernel
Run
di
seu
##ael
##li
##LR
##ates
##asi
SDK
Simple
Scale
VANETs
B2B
##ognition
3000
AAM
Kan
Low
NIDS
Out
Publ
RIP
SRC
VIS
efficient
##hatt
##Lens
##ful
##reme
Interface
International
SPH
##reuent
##ierarchy
5000
512
DAC
FMS
KS
Lot
Me
SDA
vari
##Point
##37
##EER
##ashup
Cheb
MSR
Flood
IDEF
spatial
neighbor
NTRU
##ycle
##2vec
AMD
IXP
Journal
Sil
task
##de
##gre
##tor
##Lo
##HD
Windows2000
Zigbee
##ventor
Extended
##tivity
NGN
Gnutella
MK
UI
##tech
##v3
##arget
##yshev
##2008
engine
Win32
Aspect
2DL
53
ADM
MPS
SER
Single
To
low
##oth
##MAP
##achary
##TAG
Ans
simul
Notes
visual
C8051F
XACML
Hz
INS
LTL
SCM
YUV
##cap
##moid
##LF
##PCI
Shannon
Geom
4G
AFD
Fib
SFS
bet
##ependent
##ety
Infin
##chron
160
INT
CASIA
OMG
SPEC
Cub
publ
##bench
##ml
##asis
##abil
short
cluster
introduc
B＋
C1
G2
Genetic
IL
ICS
LZ
Pow
PVM
POI
Packet
TRI
dem
soft
##FL
##uler
Java3D
##umber
Poly
Load
##uffer
##rough
Framework
GI
MIC
PPP
R2
RUP
flow
##ling
##lid
##mega
##for
IDE
##ologies
Netfilter
Radio
Research
##regman
Domino
signal
DYNA
03
2m
Band
Center
EPI
Op
TLD
l1
layer
##light
##eon
##ming
Web2
CAXA
##ocial
ARINC
##ific
##ott
##otal
scheme
CNCC
interface
HEVC
organ
Sybil
##iterbi
NVID
##orrelation
MovieLens
FLUENT
DG
Euler
OMP
view
##BI
##view
##tial
##LSTM
Parallel
modeling
environment
Cyber
proposed
##ategy
ACS
EV
FAR
La
S7
free
main
n2
##ior
##Ne
##com
##stim
##oler
##oshop
SystemC
##loader
Neighbor
elect
Chebyshev
180
49
Bell
CRL
Principal
ge
##KC
##2V
##26
##QPSO
CAR
##strap
##ervis
##urs
198
Star
CBIR
1990
communication
Automation
4D
ACC
Growth
IaaS
Mix
Tel
Viterbi
principal
##cc
##SAT
MSE
##allis
ACK
acc
Resource
been
61
Bio
CLA
CRT
DEA
FG
MRP
RI
VXI
genetic
rate
##cut
##HF
##olis
##ults
##ysical
Simulation
exper
AUT
##witter
Unix
SQLS
Levenberg
##ufact
ICC
KCF
Mag
MUS
NCS
Rem
Role
pH
sur
state
character
ElGamal
Wiener
TMS320F
NDN
EFSM
Trie
##ween
Jacob
##elligent
Core
I2C
JTAG
Ke
MLS
MTS
OLSR
PMS
Pois
TTL
cent
mechanism
optim
##oT
Enterprise
Relief
##riminant
Are
CMP
EN
EZW
Join
Leg
Mashup
Sem
Twitter
aware
eb
error
##45
##yi
##67
##Windows
##SSIM
MapInfo
resource
RPR
Smith
##round
##poral
scheduling
2C
CIS
CBS
CFS
JP
Nav
RG
Rind
digital
gre
km
##dress
##Obect
##DK
104
PSM
ARQ
STA
Stat
TMS320DM
SLIC
Processing
##riven
Computing
XSLT
##uardt
Powell
3ds
MIN
NLP
Optim
PG
mode
##SVM
##O2
##code
##ebook
10G
##irc
##ueue
##plement
PowerPC
TREC
Chinese
Region
NVIDIA
Bregman
Embedded
Gate
HDR
Honey
Wik
dimensional
grid
ob
##resh
##BB
##VPN
##cast
##card
##2S
##tice
##arp
Inventor
##oles
##ocument
##chi
Spl
##istogram
such
##echnologies
Discrete
approach
##oltzmann
Marching
Poisson
LFSR
MIP
pr
##IX
##ript
##ecution
incre
GPSR
SMC
LSH
methods
Least
region
least
Prime
##FFE
Am
EPS
JM
Ray
VA
YO
Zn
mic
##RAN
##COM
##VER
##ss
##Lab
##oupl
##EED
JavaB
SMOTE
##ographic
SPSS
Photoshop
AFDX
Rindael
GSP
LOG
MMC
TW
long
##hood
##nP
##ci
##based
APDL
323
Platform
VC＋＋6
Virtex
discrete
Bootloader
Gamma
Bhatt
Jini
NVM
Sa
UART
bus
iP
power
##46
PST
##tics
##2014
MIL
1996
##FPGA
LAB
JAFFE
07
DAS
Event
Gen
Lam
LSA
No
Pass
Sat
SCI
cost
cross
fast
##hn
##fix
##omery
##CPN
190
Cons
Quart
matlab
SPARQL
Chem
EAP
ENG
Faster
Gram
Hor
LDP
NFC
Value
syn
under
##OK
##ces
##68
##onen
##isi
##aces
##active
Content
Logic
Modelica
Montg
Maruardt
WMN
##tificial
2k
Cap
Cut
Hub
KP
M2
Oper
Table
Video
sl
##tree
##ameter
##oder
Storm
##104
Alpha
results
area
logistic
struct
##lobal
Signal
OSGi
Montgomery
AOM
Boltzmann
Dou
KA
Wu
grad
##MW
##IMS
##point
##97
##web
##LL
##inu
##ola
Advanced
ARX
##egree
propagation
SOFM
RTX
Clark
##plit
DEVS
Motion
PUF
RapidIO
Bhattachary
LSM
Mu
node
way
##NM
##NX
##iner
##oll
##ider
##try
##rapper
improved
JADE
Renyi
##raining
##rediction
Lotus
BPSO
LISP
MCP
RST
TCM
##KNN
##LISP
##otion
##ARM
Prob
##uration
##osine
SAP
##INEER
DDE
##ectional
impro
##ikh
##ressive
weighted
domain
Bhattacharyya
BMP
Euc
KVM
PNN
RVM
UCA
VFP
fM
mark
windows
##BD
##ortex
SSE
SQLite
storage
##resentation
Plus
OBB
medoids
ISSN
OPEN
69
AFM
BAC
Base
DCA
EG
FCA
HV
Pear
Sys
VGA
VMM
VER
bi
##ilton
##2012
prof
SAX
Wins
NDIS
Greedy
Self
##thetic
important
79
DCM
KGC
Media
QP
Two
UUV
rank
##xim
##til
IPsec
##IDE
Spec
SMO
##time
##2004
Conn
implement
MeanShift
into
trust
##witt
matrix
NLOS
RMSE
##ampling
Electron
delay
Walsh
Message
Node
Rational
T2
TOP
fin
will
##df
##UX
Inv
Math
TMS320VC
Controller
Distance
Color
##mbedding
Hamilton
WCET
LVQ
BCI
CMA
Database
Hal
ROP
TTP
W3C
features
##afer
##rink
##sch
##TCP
##atz
program
Storage
Blog
platform
S3C2440
Tsallis
between
ENGINEER
BW
CY
Semantic
Vi
av
role
sign
##Model
##fig
##etch
##abel
##strac
SVC
##imization
##etriev
Stok
USB2
CSF
SNP
##oute
KDDC
HMT
##valuation
Global
fMRI
AIM
DDM
Develop
EEMD
KM
LO
Mode
PMC
Wavelet
cap
end
single
uClinux
was
##la
##Graph
##300
##ACLE
RTOS
Shap
Action
AAA
Meta
##ohonen
desc
##laborative
Big
DOI
EXP
GAC
Ma
Tim
TSM
##to
##bro
##500
##terative
interest
##Stack
4000
BLE
Crimin
ECD
GPI
JMS
LG
N2
SCT
SRM
Sky
cell
giv
norm
##KB
##VT
##eline
Ste
80C
Script
TPR
ECU
##clud
IETM
ORACLE
Hamming
##ociation
Cookie
robust
Fuzzing
Area
Quartus
Pearson
71
HPC
Ter
XC
framework
hybrid
packet
pixel
semantic
use
##ns
##BAC
##59
##4WS
##alk
##ares
##idth
off
programming
ISCAS
shape
condition
MBR
CHI
XYZ
Kanade
TRIZ
SQLServer
Criminisi
04
BIT
Ei
EMS
HHT
JF
Priv
Tem
Vari
##iency
##Basic
##pixel
##serv
##means
##EX
##rob
##ACO
CORD
Shafer
Quick
Trace
TLB
LWE
##hentic
Earth
DARPA
Stokes
CORDIC
Mall
RLS
TOA
Up
pers
##08
##GI
##62
##ven
##ft
##enham
##ulse
##ecting
##igen
##PPA
SAML
MBD
##blems
##ynamics
##RESS
Black
HTML5
Portal
##oupled
Winsock
FOM
Gl
Kohonen
Light
MCA
MSS
PDP
PXA
Wil
density
##mit
##ars
intr
online
##verage
Label
Reed
1997
140
encryption
comb
##ived
FSVM
LBF
##ropolis
Reno
Unity3D
YOLO
BDI
Cent
CGA
HAS
Mer
OV
OBS
Pc
TG
UPS
XB
X86
factor
red
##da
##RN
##TF
##arts
##imit
##ured
##oto
AutoLISP
MultiGen
##antum
active
Query
Communication
DirectX
##irement
MVB
##scented
##ponse
MUSIC
Euclid
Crypt
Dat
File
GAN
Long
Mac
OCL
Pet
PER
Tab
eC
sy
uC
wavelet
##gl
1984
##2011
SAD
##ibus
RSU
LabWindows
##2007
defined
MOOC
Tools
HAZ
Metropolis
Business
YALE
##ufacturing
gradient
FEC
FOA
Merk
NFA
SEA
VE
Wh
code
op
pri
##hanced
##ran
##KD
##Tree
##GHz
##onom
##rigin
##ocus
##ARC
##ucker
contourlet
##ences
##ermin
TCG
##Server
MOEA
NASA
##ishing
##2812
Sigmoid
description
Catm
##reshold
Ba
BER
Bres
FDM
Mum
Multicast
NPC
OOP
POP
Seu
bec
core
load
mov
sin
##hav
##RO
##Cut
##yd
##ISM
##uld
Propagation
Programmable
##101
stream
GPGPU
##upervis
##ignment
SPIN
Weighted
AVR
FastICA
Bootstrap
maximum
IEC6
Prewitt
Description
invariant
Legend
##Obects
Bresenham
Den
DFS
EO
FH
GMP
KQ
MLP
PEM
Push
SDS
VME
cri
mix
review
##For
##ka
##75
##400
##HO
##etry
1024
complex
IPSO
content
WebServices
CloudSim
classification
Caltech
LonWorks
##olerant
##inuous
06
Box
Beta
DTS
EW
Iris
Layer
Norm
PAM
PAT
Tag
VGG
nearest
pe
x86
##Re
##KIT
##AE
##ba
##aris
##estion
##ample
##OSE
Shop
Shah
##verse
Reu
conn
##256
color
Jaccard
HAZOP
Legendre
DNN
DNC
D2D
Hierarchical
ILP
Mand
benchmark
deep
ear
knowledge
multicast
##Socket
##PM
##FI
##Ex
IPV
##IDA
SINS
COTS
product
10000
##achines
then
ICN
NUMA
S3C44
HMIPv6
Profibus
different
MasterCAM
##etrieval
3I
AMS
By
DN
HW
NAM
cy
text
##PL
##VL
##LBP
##QS
##HI
##omography
BPR
inf
Program
##ife
OpenCL
SAE
Shape
ADSP
##struct
UCON
Domain
Overlay
demand
TMS320DM642
AOMDV
Merkle
Catmull
700
CST
C2C
GHz
JND
Kad
Ram
VD
coding
em
segment
##Log
##iche
##SPS
##outer
includ
##ump
##raffic
Mining
##isco
YaleB
allocation
Sybase
Postgre
##WPAN
techniue
describ
Mumford
CMS
FW
Fire
NFS
NTP
Pal
SBA
band
best
hierarchical
linux
##link
##onov
##ables
##idemic
##agram
##ogene
SIG
provid
CSI
Parlay
130
aspect
Maximum
##ities
Zhang
MiniGUI
UCAV
BACnet
09
6Lo
HU
Pat
PAS
PaaS
SDP
Task
eM
sens
##SDE
##pice
##Al
##ESS
##ority
##ental
Inc
##SPACE
##imal
##cep
Adam
proper
CSG
DTC
CPM
Markup
##2002
speed
TFRC
##ivision
##DIUS
TOOL
IGES
##eedback
Library
techniues
RDBMS
2＋
BU
Bound
Cisco
Dr
ECM
Ga
GSA
KC
Mem
Rab
T1
XOR
evolution
large
##go
##Max
##KP
##uan
##512
##ere
##alable
##asy
##inger
##isk
##oSQL
##uture
Problem
##iform
##orth
Array
Environment
##RCH
1994
Unic
3GPP
VoD
LBG
Moore
Online
MNIST
FDK
applications
NFV
Portlet
STM32F
Integrated
Mallat
210
AGA
DVS
MSA
MLC
Pres
QA
SNS
##Base
##su
##well
##QR
##JS
##ving
CAP
CAA
##DATA
##adline
##otor
##unk
##ICUT
##ING
ADI
Server2000
conc
DAI
CUP
PowerPoint
##REQ
Common
##munity
Cycl
Profile
EXC
MCMC
TinyOS
2DLDA
C8051F0
08
Coding
FNN
KE
MSM
PW
Sign
Tikh
X3D
am
et
identification
lib
##Pl
##DG
##65
##era
##ingular
##DSR
problems
CC24
Context
ITU
RPCA
True
BPEL4WS
##logn
CamShift
GEO
##ampled
Freeman
VisualC＋＋
##chronous
VERICUT
Tikhonov
3S
320
Bee
B2C
DPC
Dock
ISM
IoT
LTP
Latent
NoSQL
WI
boost
basic
decomposition
mon
table
##ration
##GO
##wise
##ties
##ung
Chip
Check
##ASE
ArcSDE
Aspen
FCN
distribution
Scheduling
Prefix
Workbench
MSP430F
Grover
Instit
6LoWPAN
TOOLKIT
EXCEL
BDD
Error
Ho
Hen
LMI
QAR
Rich
SGA
SST
Sens
TBM
bal
cur
number
##MO
##O3
##erts
##uth
##ager
##avel
their
Exper
Delta
three
OSEK
convolutional
DVB
RADIUS
DEAS
CNKI
##anager
IMU
TDOA
##1850
MSComm
BFGS
Reality
##netic
Infrastructure
##ooperative
PostgreSQL
900
AST
HH
Hel
LOF
PEA
QC
RW
SLM
TSS
VQ
Wrapper
bl
dSPACE
he
uni
##aff
##Ac
##72
##UN
##＋2
##eries
##CAST
SIMP
Mathema
##EMO
MSN
standard
Constrain
Suare
channel
PPM
Lucas
radio
AT89C51
Epidemic
Softmax
snake
##brot
Mandel
AML
Bu
CPSO
DPSO
Email
IK
Identification
Mal
Measure
NR
QEM
R1
UA
With
base
pass
sum
technologies
##top
##TE
MAG
##LAM
##ifier
##obe
concept
expl
##2006
adv
##ersion
##ORD
SEU
simulation
trace
PLSA
##ropy
##iBand
edu
WINDO
engineering
220
Cop
CIC
EMC
Hand
Hard
Location
Packing
Rao
bound
sk
##FIS
##Con
##pe
##bar
##sat
##74
##ason
##ecker
##iles
Interest
##OMAP
Proxy
WSRF
SMTP
ACIS
through
shop
##ections
array
FCFS
logic
EAST
##fficiency
Robust
coll
VMware
AT89S
flash
BPMN
Twig
##abilistic
SysML
Mandelbrot
WINDOWS
Bal
DMS
Decision
Driver
GDP
GRU
LH
MDP
NCC
RREQ
hat
training
##VA
##eived
##pke
##Te
##X2
2020
##omap
prov
Compact
##ustom
##load
##2003
MDT
SCR
score
##egative
##DCF
similarity
##space
Secure
##pectation
CNCERT
attribute
Levy
MPPT
Ansys
InfiniBand
softmax
EXPRESS
##upervised
ATP
CEP
IGA
LCS
MIPv6
OEM
SFM
Source
WEP
cor
cube
estim
if
mn
session
＋＋
##FCM
##cat
##LB
##87
##oun
##ego
Choles
##ucle
##ume
ont
only
Short
show
##ectory
##asso
##ustre
NetFlow
##2400
suare
Weib
##dentity
filtering
GNSS
##ossip
LINUX
##Trust
##Engine
KDDCUP
Euclidean
Alex
BFS
Best
Dec
EEP
FCS
Kir
Lu
MOF
Rose
cut
degree
event
met
val
##Ray
##FR
##kNN
Web3D
##CAL
MAD
MAE
##LAC
##ules
##ops
PSpice
Cham
##lete
ADV
1995
WiMAX
##89C
AABB
##Studio
edge
integrated
HowNet
Fibon
PSTN
5m
Ax
Bot
CDF
DPS
FIP
Ku
LCA
QOS
Rate
TCS
V2
eX
freuent
socket
##Mb
##leb
##land
##sampled
##width
##34
CAGD
##acci
##agic
##ogonal
##ify
MSER
##MDB
IDEA
forward
##istics
Quad
detail
Liu
##overage
##afe
MODIS
Bandelet
Statech
ontology
BDH
Cortex
DMC
Decomposition
FAN
IIS
LZW
MCC
Ri
Rev
S2
SMA
Vehicle
WNN
dec
decision
##rust
##NCC
##kV
##path
##box
##Ed
##GN
##LIB
##Wire
##fic
##eley
##ISE
##emble
##DAS
##cheb
Prolog
##irp
MPR
##ibility
8051
509
LSI
minimum
##WSN
nets
matching
regression
preserving
extended
UPF
##mpir
TMS320F2812
Fibonacci
AOS
ALC
AKA
BEMD
Eu
FE
FGS
HNC
JIT
Kraw
Lustre
MDL
Native
POM
QFD
SCC
SRP
case
pos
tim
type
##MR
##IPS
##ltr
##rite
##ISA
PCL
3DSMA
##ege
RTW
Standard
##INE
SPR
##LEX
networking
##oints
##2009
algorithms
##ooth
Leap
##oundation
GLCM
selection
JSF
phase
Kripke
many
study
moving
Cholesky
3DSMAX
350
BOC
Buck
Case
FEM
GWO
KMP
KBE
Pt
RCP
Tcheb
Xeon
current
kd
solution
tion
##ru
##iability
##iRNA
##9000
##terra
##ollow
CSR
MSD
these
OSI
models
Cost
strategy
Grad
relation
secure
PIC16
MMSE
##ochastic
automatic
Naive
Volterra
ReliefF
Navier
Docker
##mpirical
Berk
Cb
CDS
C51
Fit
GAR
L0
LBM
Nu
Ob
Pan
S3
SSM
Sum
Session
Tent
UN
UD
ver
##FE
##col
##media
##36
##tity
##omon
3DMAX
ARC
192
##MPP
Channel
CSCD
Acc
Clos
APIT
DAA
MPEG4
super
##itional
check
RPL
##ullback
Small
NDVI
recognition
##tifact
Roberts
SMS4
Isomap
Waters
reuirement
Cubes
Split
##ogeneous
Analy
DPI
DST
Em
FDS
GH
Gal
HAR
Hook
IAP
LAM
M3
NLM
QRS
RIA
SLP
Wel
but
fault
noise
priv
ratio
##iod
##norr
##System
##KMS
##ebra
##emb
##ird
PSD
##traction
##une
125
Bean
SM4
Delay
##plic
CNNIC
ABAC
IPSEC
MOPSO
CASE
CRFs
presented
general
word2vec
Slope
COSM
simulink
BLEU
##hentication
1m
Av
BIC
Cer
CDL
CIF
EBS
FVC
Gold
IGB
LVS
Mechanism
Pic
PPS
RV
Ro
RDMA
SSA
VOC
br
db
element
flo
global
##Me
##PF
##cul
##mal
##UA
##38
##HR
##zer
##orph
##eder
##attice
##ectiv
##olar
##app
##ille
theory
Line
##inder
RBC
Shell
DDo
AT91
##perture
##mental
##thogonal
##aching
DSm
ISAR
ISOMAP
CMAC
Unscented
MPICH
DM642
EPON
263
##process
Plant
##LOB
Voice
Graphics
Robin
FlexRay
direct
Redis
policy
TextRank
GrabCut
temporal
seuence
micro
Weibull
BCH
Card
Kar
Kullback
MEC
Midd
Ost
Pa
RES
SAM
SFC
Social
UPPA
boot
buil
basis
car
file
message
position
##du
##Box
##Cont
##Network
##tropy
##540
##ouse
##ACT
input
##indow
##ura
VisualBasic
##TPM
##ysics
MCNP
spect
##atory
##mmetric
discriminant
OGC
SFLA
ANFIS
##ished
OBDD
SPEA
Allocation
Horn
Invariant
boosting
ATS
DAT
FDR
Knowledge
Kmeans
Mob
NW
ODM
SED
SJA
er
gu
vehicle
##hone
##ait
##gan
##BL
##Kit
##NE
##tream
##model
##TD
##Type
##ye
##LI
##JT
##ves
##faces
##alth
##elief
##tional
##iler
PCF
##tica
Matching
CTCS
STR
MapGIS
Exchange
SPT
##ipher
ASD
DAO
CFAR
Coons
ArcIMS
##255
MTF
Comb
Huang
##196
trad
Torus
EPICS
##weber
SCTP
##havior
##ichef
EEPROM
UPPAAL
BG
Dav
Evolution
Factor
Gb
Hidden
LIC
LLC
Ratio
SNA
Us
Yah
hierarchy
range
source
##OW
##ef
##semble
##71
##esis
CAC
##cean
Adobe
##uccess
##order
DDOS
Floy
##ELP
##racer
##ridge
1992
C＋＋6
WinCE
transfer
Plan
topic
Landsat
Landweber
Facebook
IXP2400
IPV6
ACA
BES
CQ
Cast
CBC
DK
Dyn
GW
Hi
LPA
OSA
PQ
PDS
Pers
REM
WTA
Zip
ant
cal
future
rem
tomography
##iable
##ious
##gelet
##PT
##BN
##Agent
##ales
##aring
##elberg
##rial
##GAS
BPA
FPA
SIN
##osen
1958
##unn
##INT
DTI
OSD
1394
Encryption
unified
LDoS
LiDAR
item
LIVE
Window
Daub
##2Vec
experim
Unicode
Henon
Tchebichef
Berkeley
IGBT
1s
3A
ALM
BLA
BIST
Cay
Dev
FJ
FED
GDI
Live
MOM
Mah
Nearest
O2O
PCP
RSM
V1
War
gate
hy
opt
xPC
##gress
##comp
##mar
##EG
##TH
##word
##Link
##onance
##its
Agents
##ouet
PCS
PC104
101
Product
##201
Sci
##ological
CBF
Bayer
PDMS
Meanshift
independent
EFI
ADSL
present
presents
Item
FORT
OLED
INTERNET
Jacobi
KQML
CSM
CWT
EZ
Motor
Nut
OOD
PLD
SML
UV
Val
WD
correlation
fac
mag
petri
v2
##aut
##pan
##GT
##enet
##aly
##lev
##SPEC
##ami
ProCAST
RTSP
##ources
##103
ASC
Intelligent
ICE
images
Minimum
##GSO
Leib
Schnorr
OGRE
BRIS
LoG
obects
Abstrac
AT89C52
Team
JavaBean
CDP
CRS
Du
Kn
LTS
Mell
OCS
PSS
Pair
RH
SCP
SDM
TN
TAN
WL
XF
agg
call
device
se
video
##ho
##mel
##250
##esc
##urn
1985
Chain
SPWM
SARS
Solomon
1993
SCDMA
Any
Dep
LBSN
Policy
TMS320C6
XSL
POCS
SpaceWire
Electro
Stateflow
##odesk
Intrusion
Stackelberg
FoxPro
business
Development
PEMFC
Cyclone
Gradient
Floyd
AFS
BV
E1
Hat
Joh
SEC
UT
Wf
XM
Zem
bag
frame
l2
##text
##83
##800
##ody
##FTP
##ury
OpenStack
##2015
produc
Autodesk
Speed
##echies
##plication
common
SPICE
AMBA
TMR
##ancing
SWRL
##ypes
GRNN
mapping
##aze
probability
Remote
PEAL
Daubechies
FORTRAN
1D
1x
Cd
CWM
ESS
FMM
FLD
Gossip
Hive
Jena
Of
ORM
Opt
Pail
RN
RCM
Switch
VIEW
average
evaluation
hidden
histogram
latent
world
##pot
##Ar
##900
##ina
##rous
IPM
##CAT
##olec
SVP
MCL
DCNN
DSC
Labview
DBLP
Convolutional
240
SCO
Transfer
Phong
simple
SiC
Water
FIPA
SJA1000
640
Drop
EPP
ERT
Easy
IBS
Ling
LUT
NMS
Queue
RU
RDP
RRT
Total
how
our
part
rootkit
##nit
##gi
##SE
##Filter
##OPS
##NMF
##lor
##lied
##Draw
##ZE
##eno
##algorithm
##ently
##head
##DAF
##aver
Execution
Artificial
Artifact
alpha
MRA
##IEF
ATmega
DSDV
Solaris
PCI90
enterprise
Miner
BIRCH
ISODATA
RAID5
colony
modified
Generator
IKEv2
physical
attack
ADMM
Adams
Rabin
Zipf
Paillier
Aff
ALE
CDD
Cult
Census
CPCI
Eigen
JVM
LAR
Pb
Pos
QAM
UHF
WAV
bug
cr
den
driven
list
n3
well
##MAC
##Cast
##92
##47
##TW
##Tool
##UD
##oE
##fter
##ano
CART
##tric
1988
STD
STAR
Sparse
163
Partition
##ploy
exist
##ONE
Topic
Imp
XPDL
generation
TTE
TMS320C64
##eterogeneous
##Span
Green
##ehicular
##ociety
##sets
P300
##atisf
##FORM
M2M
Mellin
AAC
But
Boy
BLOB
Cri
DQ
DMD
DLP
GG
Hot
HSM
IQ
MCT
NEMO
Sti
TEM
UF
VIA
YH
document
limit
miRNA
nlogn
port
##rus
##02
##Mbps
##SIM
##Comp
##uence
##pcap
##Data
##yte
##LU
##ona
##arm
##ester
##ece
SIL
##PES
MapObects
1500
##warding
##edund
SM2
##iffer
SUN
LSF
exp
transmission
PMAC
AVL
##epar
##oken
OTB
MIDI
discusses
discussed
introduces
Semi
iPhone
Leibler
6000
ACP
Aided
DCP
DLS
Duff
FDD
Gent
HIP
HOP
List
ROS
SEL
Yang
ag
box
makes
success
##RED
##NB
##lation
##ten
##tain
##7C
##417
##HDL
##inal
##ined
##enn
##tiz
##ets
##isp
##leigh
##olm
SVMs
CTI
MPTCP
CBTC
DVE
partition
internet
NTFS
Direct3D
Leader
##finition
##Stream
AND
L2TP
author
overlay
Colony
JSON
##board
Morlet
KFCM
GDSS
LKH
MPC8
protot
1907
PASCAL
Ostu
B3
CDM
Cycle
EBC
F5
FPS
IH
KELM
MED
MRS
Mass
OCC
SPSO
Type
UCS
VSS
m2
most
other
prediction
so
target
very
##gestion
##CN
##ck
##be
##429
##yl
##LIP
##XT
##Java
##ining
##ters
##abl
##use
##inear
Linux2
##ellite
##uced
MSRA
##key
IDC
CFA
##IFI
SRGM
sparse
Unig
##aker
Planning
GSO
Gray
DeepWeb
FMEA
Coll
RTLinux
Computational
Automatic
##onym
IVUS
HL7
Streaming
##LF240
Wiki
traditional
Cayley
hyper
Nutch
Er
EAS
FBP
KLT
MET
NSA
OTP
RQ
S1
SAC
SLS
SPP
V5
VIP
WAN
down
mass
total
were
##rum
##BT
##uman
##lia
##idation
Adv
Address
##aylor
Windows98
WindowsNT
STS
CCFC
UML2
11e
Mapping
SSO
##TSVM
VBR
255
##seud
##play
MAPGIS
GSI
##strum
OCSP
auto
PDF417
HASM
Aglet
Generalized
##regation
Order
difference
CCSDS
Surf
NHPP
##ascade
##liest
optimal
Rayleigh
trusted
GPIB
80C196
optical
##onomous
Copula
BSS
Ca
DIB
Frame
KV
K2
LID
NMI
PPC
TCA
TDS
UL
embedding
hand
label
tolerant
##rator
##ger
##Search
##FET
##FDP
##Cache
##ced
##sev
##med
##Gbps
##＋n
##JM
##inet
##ister
##ects
##RBM
##ovel
Vision
##ERA
SimRank
##istel
##ustrial
Networking
Structure
ECN
CVT
##LOW
##ship
##uller
AGC
Independent
General
Organ
Feistel
##ivery
constrained
Public
AUTO
Double
finite
ECDSA
CC2430
QEMU
Ce
CIP
EIS
Eps
Fri
H2
HY
LDS
MX
Po
PLA
PGA
Range
Round
TSA
Taylor
WBS
XKMS
bro
efficiency
post
poss
reduce
##date
##Mesh
##SAR
##und
##9i
##49
##3S
##ors
##reat
Incre
##stand
SVO
##iling
##emi
##ading
##2016
Chi
##mand
Maple
##ordin
##eek
Beam
DS18
CPK
ASIFT
##pline
DAE
CDT
result
need
DWDM
RTL80
UPnP
Synthetic
Selection
SPARC
##itoring
about
ebXML
AIMD
given
Reuest
Richard
Welch
##olecular
Bib
Cram
Circ
DDA
End
EWB
FTL
Ger
HAC
HEED
KB
King
LFM
Mong
OW
ONS
SSP
TTS
TDT
ap
kind
sever
##gebra
##Vis
##uad
##AI
##USB
##oom
##Hash
##zen
##tis
##als
##icon
##ases
##amard
##idual
Material
COP
##ording
##ffer
RSF
MC9
##ync
##sey
##raphics
215
context
EPR
AMR
Basic6
IBR
strength
DWG
regular
BBO
output
patterns
Protege
representation
testing
Intra
ARINC429
electron
CFSFDP
KDDCUP99
BRISK
7000
APS
BH
BCS
Bone
Dual
ESA
FN
Fusion
LDC
SRT
Tile
TOC
TWS
Target
UIO
center
coupled
gent
last
##datz
##B0
##N1
##cer
##cam
##file
MAR
MART
##ouch
##agon
##adow
##SSD
Adap
##owski
OpenG
##SMV
COD
RTC
VC6
##ipedia
Cliff
ATC
threshold
ASIP
statis
advanced
address
C＋＋Builder
MDO
client
Word2Vec
chain
SNMPv3
Phil
##iller
VxD
PTZ
collaborative
Locality
module
##pendex
LVDS
Symb
Tomography
Publisher
##ificant
Keil
intrusion
HASH
Institute
John
Mongo
3C
Cod
Density
Foundation
IOS
IRP
KK
P4
PX
PFC
Ring
Sav
Term
TDI
WIFI
You
cosine
n＋1
sw
##Mark
##ken
##etic
##pack
##57
##210
##TPS
##utation
##utta
##amp
##iding
##ception
##CTS
1966
SATA
ATL
##1200
RBFNN
CBD
Nets
schema
TMS320LF240
users
##rint
Defined
AVI
BSC
##ugment
OMNe
EDCA
generalized
##nealing
extensible
Eclat
##Schema
##ounting
Broker
Sample
Attribute
operating
Geomagic
geom
Tabu
##5402
Zemike
Duffing
RTL8019
Clifford
Bur
BUS
CEC
ETM
Freuent
IW
ILS
Kit
LMD
Lattice
MPU
Muller
Ocean
PBS
PTP
PGP
PERT
SRA
bank
feedback
loop
no
pop
##hi
##db
##ground
##Bus
##Key
##VSM
##coder
##lash
##ease
##Ad
##2R
##eloc
##rees
##ACC
##adcast
##LSE
##eger
proection
SOR
##ions
SSR
VCR
MCGS
##ptables
PRES
CVE
##ival
transaction
Quantum
Tracker
Transport
ESRI
BIH
RC4
weight
89C
sets
OLTP
##ommend
Association
shellcode
Differential
improve
TSMC
bandwidth
AT89S52
FANUC
Yahoo
Au
Buil
CEE
Dy
DGA
IBC
Lw
Lasso
PAN
Ric
dou
sort
##One
##cert
##kov
##DSS
##5000
##81
##ZT
##ender
##orov
XMLSchema
##aps
MARC
##ouk
##open
FPN
##oting
Spin
1616
##allen
Part
SMART
Intell
action
TCB
TCN
Radar
Physical
MANETs
Modem
GridSim
LSSVR
##pose
computation
developed
1971
Prim
Brodatz
WAPI
VOIP
Difference
VISA
Honeypot
Wikipedia
XBRL
##Force
including
DSmT
CCFCNCC
510
APC
Cim
CUS
Cred
Driven
FFD
HDP
HIF
Ip
IDA
IMC
JT
JNI
Loc
MDD
OAS
PMF
RAP
TEE
Va
WE
WCF
aided
buffer
go
iterative
lt
me
rough
##rical
##Miner
##PR
##Co
##kHz
##lak
##tch
##tml
##system
##93
##GF
##wey
##Work
##alv
##eli
##asing
inverse
##PER
##RBF
1980
##BSD
##istent
SPL
SPOT
IDSS
ATI
Simulator
##ynchronous
Multigen
than
shap
##ause
##erson
##Service
partial
PPT
TMN
##ancy
INSPEC
Directed
MMU
recon
##OIQ
Robot
##oefficient
##auch
LPC22
##fluence
integration
reuest
Runge
Flooding
IDEF0
Silver
JMX
Electronics
Shapley
provides
Kirsch
eXt
POMDP
NuSMV
SVPWM
3m
Bill
Borl
CCT
Eff
FIS
GPC
Gene
HGA
IDM
Imm
Kolm
Kutta
MPSO
MMAS
TK
Toe
UEF
VMI
WPS
YIQ
embedded
flex
switch
##hash
##Se
##Pcap
##VQ
##480
##63
##680
##ould
##eness
##anob
##rog
##isms
##SAM
##ticles
Spam
##umer
DTM
ATE
Hadamard
enhanced
continuous
Struct
##ermark
DataSocket
intelligent
Appro
log2
depend
MIME
RCNN
KDD99
Extensible
Extreme
##euris
##ducation
##echanical
GNU
1978
Applications
differential
##TICS
small
GSPN
##erministic
infrastructure
##embly
COSMOS
Motorola
Unigraphics
Cramer
MC9S
Boneh
##auchy
Borland
2PCA
AMP
Book
CCP
Cauchy
Dream
EST
HEL
Hierarchy
Histogram
Joint
Kim
Mid
OSS
Token
VLC
VNF
XMPP
cos
cycle
gt
sample
##hat
##nov
##gu
##Car
##VB
##co
##App
##br
##＋M
##anal
##arant
##eld
##atron
##aseline
##itz
##lean
##SPA
##omy
##MSE
##network
##adget
##SSL
CTR
##osite
##ellia
HTTPS
ISE
IntServ
DVFS
ABMS
CDC
TSK
chip
WinS
##clusion
Blue
FAHP
Recon
HIV
WFQ
Diameter
Universal
Classification
RESTful
effective
Tomcat
specification
Finally
introduced
##ottom
##ursuit
ACCESS
characteristics
markup
CY7C
univers
Mathematica
##asoning
Middleb
FJSP
Biba
Kolmog
UEFI
AQ
Ari
AOI
Cosine
Document
FIM
GDS
GOP
Hol
Hart
Hoe
Jack
Lena
MLE
MTC
NIS
Nucle
Qual
RLC
RDD
SMM
SBS
THz
WLD
fit
focus
k1
negative
ps
run
there
##PLC
##Node
##can
##ln
##160
##AF
##TT
##oull
##alanob
##tere
##acon
##IDM
##igation
##igence
##CMA
##DMI
##aya
RTE
##CCF
##ODE
##izer
##ensive
MRAM
MCNC
ISC
Complex
step
ROU
178
##ressed
##REW
##uters
PM2
BGP4
OFF
Human
Response
Module
PEGAS
##witching
localization
##ickr
##onsub
Generation
Hyd
manufacturing
WPKI
Protel
Workshop
great
MathML
S3C44B0
Axis
Krawtch
##alesman
##unnel
##ommendation
##oulli
##alanobis
Krawtchouk
ASA
Aware
BPSK
CDA
CES
Gas
GAP
GTS
GHS
HG
HPI
Hill
Iterative
JN
LXI
RAC
TOF
Tensor
UCF
Ultr
Worm
WORD
light
pair
ret
spline
vol
wat
##hoff
##nos
##care
##DBS
##ws
##600
##oM
##oor
##XL
##fore
##int
##ones
##ani
##ISS
##MSN
##oph
##SSE
##ansion
##otation
##otential
##203
Chirp
Maps
SSDA
Similarity
DDH
##ght
SNE
Scheme
RBAC96
##2001
##ude
##IRE
suares
##elets
##akag
PIV
Once
Camellia
OMR
SOCKS
OPTICS
BRIEF
Regression
attention
fields
STC89C
BLUE
MPSoC
SERVER
Polyflow
Denial
Preserving
C8051F020
CICQ
##tization
##seudo
##euristic
Kolmogorov
PEGASIS
422
ACT
ECS
Efficient
God
GMD
Her
HSP
IMP
MOST
Nb
Poin
RAS
TU
Tam
UBM
WG
WML
Ziv
each
fr
iOS
nam
princip
predic
sampling
version
##BUS
##Open
##NoC
##Design
##7A
##73
##Gb
##UR
##3000
##ze
##enius
##onic
##lear
##ilinear
##MSF
102
##essment
##inding
programmable
1200
##anging
##angle
Expectation
SPF
CMC
stat
DBA
LSD
DVR
##linear
change
article
RPM
Phase
Plug
##IBE
Compendex
Motif
Recur
NAF
BM3D
IGMP
relev
Discovery
Discriminant
Sigma
MSTAR
Trusted
Canopy
probabilistic
seuential
JavaBeans
##aveling
Mahalanobis
several
##elocity
##onsubsampled
AIC
Bent
Batch
Crow
Correlation
E2
Gar
GLS
GIF
GDB
IST
Mink
PML
PAP
PIA
QM
Ra
RCC
RHT
SCS
Segment
TNC
UTM
VNS
WIA
cooperative
ide
origin
she
te
util
year
##gence
##Set
##CU
##ct
##150
##＋S
##fps
##xx
##erre
##alog
##els
##itation
##omial
them
##OMP
##CMOS
##pping
SSC
##FS2
Parzen
SMV
Alice
ICF
18m
Oracle9i
resolution
science
##clic
RDFS
Obects
GMR
discovery
##Shrink
Distribution
Processor
locality
65nm
computational
components
words
directional
##dentifier
ELF
Morph
Medi
Surfer
Integration
SoPC
WMSNs
Finite
Consensus
profile
implementation
Electronic
##figuration
Private
PXA255
critical
RTL8019AS
##allenge
AFT
Buffer
Cup
CKF
DMF
EOS
Features
GU
Gap
Glo
H1
HLS
IVR
Mb
NPE
Name
Os
PVS
Pulse
RIF
SEP
TLC
Wide
coefficient
k2
lat
retrieval
semi
traffic
##lib
##pace
##Trans
##water
##vol
##ather
##icing
##olic
##PSVM
##ervation
##idel
BPF
SIC
SINR
##ired
Add
##2017
SOL
RSL
Flickr
##ueu
DTE
SMIL
##anner
ASON
PKU
DBDH
construct
DAML
1991
##maz
PCIe
imaging
Theory
AODVr
Then
processor
def
Weight
uniform
FMT
TTCAN
graphic
graphics
##Space
direction
NMR
AHB
PSPICE
approxim
Sketch
avail
Normalized
PrefixSpan
estimation
PIC16F
GARCH
OMNeT
double
Silverlight
##analysis
Amaz
BGA
CLS
Call
DRF
Es
EER
Estim
FDA
FSS
HDD
Host
IFC
IRC
INR
JB
JO
LN
Lips
Ol
Pub
PDT
Patch
Prediction
RK
Rule
SID
Sort
SGS
TLA
Tcl
TWA
Wave
face
k＋1
loc
machines
rule
##host
##ae
##MT
##IVE
##uis
##ks
##ktop
##AA
##mesh
##41
##WE
##rome
CAMS
##emlia
##odatabase
##oper
Provid
##CTL
PSL
##urpose
Match
##EMG
##anger
Arena
SPKI
DBR
ROF
##RTI
##igner
Neu
Need
DRR
##WSNs
##aking
Quan
Transformation
Vxworks
##1588
Dewey
tracking
material
##Cloud
##tification
Booth
Agg
VerilogHDL
NIOS
BRDF
##rawler
CCA2
##afety
WCDMA
NOW
##everse
##BOX
MIDAS
Samba
DeviceNet
##tificate
variation
PPPoE
FARIMA
##ursive
Baum
Memetic
SPEA2
Stir
OpenGVS
##alvik
840
Ace
ADP
CLO
Dalvik
ESM
EAM
FCC
Frob
Gol
HOL
ICI
Identity
Jav
Kle
LET
LAS
LIF
MHT
MTM
Nand
Rs
Root
Sab
Safe
Tan
TID
TAM
Tucker
Vib
Wigner
dat
eu
fail
id
mer
prac
social
singular
##hole
##graph
##FFT
##NL
##ua
##cs
##las
##vention
##eting
##atural
##right
##itch
##ndo
##ama
##ily
##emp
##idgelet
##ads
##ayes
CC25
Chouet
Stud
##wart
##ratic
##ights
IDCT
ATR
stage
##EAK
UGNX
execution
Sugen
TPA
##entific
scalable
##pportun
##chitz
CNF
Geodatabase
MFA
Weil
##CLinux
Modified
what
planning
ANP
related
Demons
##uffle
LFU
Bernoulli
HRV
Watson
Testing
tools
obective
Said
GMPLS
mixture
Kademlia
magnetic
Depth
##tricted
CUSUM
Middlebury
Minkowski
INRIA
Frobenius
CEL
DBC
Embedding
FSA
GBM
GDH
HFC
IIR
JU
Jet
LOS
LRC
Mg
MLD
NIC
Noise
PEP
POA
QD
QNX
Sin
SCD
Serial
TQ
TAR
Ther
TTA
Under
VCP
WSAN
bin
follow
mo
nRF
novel
split
tag
vTPM
window
##C5
##cent
##79
##270
##wer
##Ware
##H2
##ala
##icator
CAIDA
##ites
##terion
##CAR
Proect
##tract
COAE
##MMC
##ESLA
Authentication
Cha
Vista
SDC
Spect
Partial
Flight
SMR
SMIC
ATLAS
ASR
APK
APF
Enhanced
DB2
IEEE1588
adap
EMR
##OCK
Strategy
TSVM
Cohn
WinCC
artificial
international
Transaction
logn
iSLIP
##rival
SPECT
TENA
BBF
SGI
##weight
OOPN
poly
effectiv
##ditional
Expression
accur
##plitz
Variable
reviewed
reuirements
AUTOCAD
##standing
Toeplitz
WinSock
024
1＋
2N
AMC
ALT
CJ
CBP
Down
Easi
F2
Face
HOS
HDF
PSA
PIN
Rh
R0
SHT
UDF
VAR
crypt
human
kHz
mar
pi
rap
##rics
##group
##MV
##Par
##BG
##uantum
##td
##base
##TB
##UG
##Linux
##fly
CAX
##CAP
##leware
##stabl
##olk
##uting
MAK
10g
##adata
##vey
OpenSSL
RFE
SOD
##NAM
Char
CSCL
MSRC
ACR
complete
Reuters
Modelsim
##antages
##IFF
PROM
MDC
clos
cloud
Snakes
response
WinPcap
Elsev
ForC
##149
##areh
ResNet
##1999
973
Recognition
Collaborative
computed
Demand
##manned
WTO
Computed
##portional
EtherCAT
NOx
##gger
constraint
organization
CBSD
Optimal
Gateway
ZnO
normal
peak
Buchi
AlexNet
MARTE
HIFU
##Carlo
Amazon
Lipschitz
rapid
ADD
AMI
BLS
BTM
BLSTM
CML
Cascade
ERS
FU
Far
Fail
Http
KML
LIS
MSB
Nag
NPP
OoS
PAC
PDR
Pages
REE
RPN
SOS
SRL
SLE
Techni
Traffic
Tracer
Vc
V4
VG
Wall
Warp
ai
aff
custom
kV
media
n＋
points
satisf
win
##hson
##den
##doc
##Ms
##CPU
##kin
##pi
##42
##43
##Time
##oon
##QP
##HAN
##orum
##aser
##aset
Instruction
Instrum
##stant
##omic
MAODV
##ulator
Proc
##FTS
##urb
SON
RTO
Chang
Stan
Statis
##ourse
SSI
##ERS
meanshift
Arm
SPMD
CANopen
MRC
MCF
Alta
##6410
ITC
135
##plus
CMY
LSC
##ustry
exchange
##ikeli
community
sci
CNGI
PHM
Force
Forest
GBDT
LBlock
##bits
CLIPS
topology
Deadline
received
##Stego
##spec
##spice
##versity
OPAC
Performance
leader
001
ONE
##insic
Sym
FreeBSD
CIELAB
domin
Telnet
PMSM
precision
Skype
Temporal
##service
Seuential
Ramsey
##Algorithm
Chamel
LAMOST
##iphertext
Cult3D
Philips
HELLO
RTEMS
Provider
Sugeno
Elsevier
1mm
2s
Bin
BDS
CEM
DU
EU
EDS
Fu
Fair
LCM
LCC
Mess
Manager
N1
Ny
OK
OST
ODE
Origin
PMM
PMP
PRM
PTA
PDI
Pull
PZT
Review
TDM
VSP
Wol
Ward
XO
XGB
XMI
der
fair
good
war
you
##nn
##Pa
##Bl
##OPSO
##Driver
##6000
##＋FPGA
##v4
##HB
##HMM
##etti
##esti
##icense
##rive
##oli
##utual
##agnos
##aving
10m
##SSA
initi
##urther
##PCC
##unit
CON
##CADE
MPa
##plor
CMT
211
DAQ
agents
CBT
##rosc
MDCT
##ernary
##ativ
MPI＋
resonance
Strength
DFM
PHOG
Rete
Smar
OAI
MonteCarlo
Extend
BiLSTM
##scale
OPT
ETX
NGI
extreme
UMIST
directed
HRRP
BOW
##Scene
EXT
Frank
##reads
LKM
##IGHT
Precision
SuperMap
background
solid
analyzes
CERNET2
512512
Satellite
synthetic
Dougl
conditional
POP3
properties
##Plus
Hoare
ODMRP
BLAST
electronic
##ugmented
PRESENT
##ikelihood
Douglas
1X
450
61850
Az
AOA
BAS
D2
DET
DUC
Fix
FLAC
Gy
HK
HN
HJ
LNG
Law
Machines
P1
Penti
RSP
SWT
TPN
UK
UE
XD
circ
dev
eB
har
hel
ip
must
round
sat
size
supervised
sEMG
##SO
##Pri
##PBS
##RIS
##Ind
##FG
##OE
##OH
##Droid
##4000
##oD
##atrix
CAPS
Inver
##olid
SIRS
##ays
##uning
COR
##DFA
STP
STF
112
##DPM
##ppa
##angian
Share
25m
AD7
MCB
SMAC
GAF
MICA
##oCup
DPCS
##celer
DEFORM
##resent
DFSA
EPM
interaction
interactive
Transmission
anonym
Imaging
##ances
logN
deadline
behavior
while
MLR
HMAC
##version
RoboCup
Filtering
maximization
Relation
LPQ
TLBO
Perlin
functions
association
Raphson
SMP2
Front
RDO
consensus
##2O3
Facet
ARM7T
Skip
KAZE
capac
Seuence
IEC61850
STM32F103
library
WIMP
Experim
VoiceXML
denial
##certain
Immune
watermark
OMNeT＋＋
ForCES
2M
2mm
3dB
6m
750
A1
AFC
Aperture
BMC
DEE
DDL
DRA
DRT
Division
Empirical
IRI
KR
Kron
LOT
Ms
Mask
Ncut
Om
OIL
Pm
Pas
Pay
PTM
Retrieval
Singular
Society
TX
TDD
V3
VCS
XCP
Z39
corr
establ
fly
heat
ln
meta
pulse
root
sobel
tor
##gle
##Mn
##CNN
##Core
##OSS
##VW
##AG
##ban
##sky
##yclic
##WD
##QoS
##XX
##＋H
##elf
##ople
ing
Promel
##pens
RTM
##ystal
Shor
ASN
APD
Scalable
##MFI
congestion
CFI
CBM
PRE
PRISM
Diffserv
CURE
##ooling
TSPLIB
transformation
Physics
intell
Blob
GeForce
PMIPv6
applied
SEI
SWIM
##701
OMT
##Inter
AFSA
##echanics
modes
Perl
##weaver
LPC2
Imageware
Manufacturing
radar
Foxpro
##toral
public
centric
greedy
Merge
describes
evolutionary
Malik
Statechart
##duce
##Control
##ployment
OceanBase
Poincare
Promela
825
Ber
Boo
BNF
BREW
CID
CISC
DPP
Dense
Fp
FBM
GOS
Gra
Gist
HCM
IFP
Kd
LIP
Lite
OH
ODS
Omega
POD
PON
Paw
Rom
REP
SNN
Sob
UID
Use
Van
WR
Wit
Wine
ZDT
cre
canny
do
hot
ke
look
next
potential
rules
tf
vehicular
##iro
##ios
##iue
##B20
##FIA
##par
##DRA
##As
##ski
##E0
##with
##Le
##LG
##82
##zy
##inity
CAB
CAID
CAFD
##acement
##reh
Input
Initi
##stner
##oSim
106
3DES
Linpack
##vex
##other
1989
##2051
RTF
11i
11DCF
Chunk
Stochastic
SDE
SAA
##aboratory
token
MPCA
MPRM
##EPG
##ipmap
2500
DTL
ACF
CPR
##ories
##uple
Concept
adhoc
contain
Harr
Wire
DLT
Phi
orthogonal
FAQ
ESD
35m
Community
Maximization
SLCA
GridFTP
rece
##olev
Robert
TAO
WTLS
Itti
##ariance
Slave
reality
flu
Lagrangian
Disk
HOOK
GOOSE
solve
protein
analyzed
MOSFET
smooth
TPSN
published
organizing
structural
gives
segmentation
aspects
MSP430F149
Sensing
corres
HARQ
OODB
MongoDB
Cimatron
##68013
Dreamweaver
years
Vibe
##doctoral
XGBoost
Pentium
Pawlak
2P
Amb
Bob
BUC
CLP
Cite
Custom
Coverage
DEL
ETC
Fault
GMA
IAC
IRS
JMF
KTH
MBS
NDC
Number
PES
QIM
Sampling
Tet
TMM
Yu
YCr
both
cer
dimension
food
nn
occ
p2
put
same
##hoe
##Mail
##SC
##VIEW
##center
##len
##lov
##eech
##180
##DOM
##Tube
##oard
##Join
##fs
##rientation
##rem
##omb
PCC
PCIE
##ectual
PSB
##osc
##tractor
##MPa
SDR
##INET
Arch
DDK
Activity
100M
##ipe
MRO
MCI
MCDS
##perty
NPB
ISR
##ynomial
Solution
GPR
Conc
##iao
enh
entropy
##ersen
Uniform
Threshold
Radial
##ielens
param
##TCHA
Grass
Graphic
LAI
Newman
GEI
##valu
FREAK
Perona
Compute
ALU
1976
LIMS
Sync
Morse
Attention
ability
operation
analyze
FAT32
ARINC6
Mixture
surface
significant
CAPTCHA
Measurement
privacy
Factorization
Personal
existing
SELinux
DS18B20
Symbian
ROUGE
original
2R
230
ALS
B6
Cad
Cos
CER
CIDF
Coupled
DRS
EON
Element
FX
FSP
FAP
Full
FME
GSS
GCM
GJB
HST
HPSO
KIT
Lp
L3
M1
NYS
Ox
OMAP
RPS
Router
Sand
Tc
YC
bri
heterogeneous
l0
loss
purpose
separ
tw
＋1
##iation
##gel
##SD
##Rep
##Com
##OCC
##cal
##kn
##550
##9200
##Ti
##wall
##QC
##QAM
##vm
##HET
##onical
##ality
##ecess
##ISOR
##ulated
##ima
##idir
PCG
##ARD
ins
CTM
##CCD
##ordination
##FSK
##BPM
##istance
ASCI
iss
Scene
Report
Inte
should
DBT
conver
CFG
ABR
CGSP
Anti
##FPA
Three
articles
PHY
VegaPri
IME
MMOG
Schro
OAuth
Industrial
protocols
diffic
TMS320C67
Hammer
Flexsim
Flexible
##ertz
UMTS
Turb
Fluid
Game
disk
sigmoid
##Tracker
##llust
DoG
CLAR
Operating
##dfire
ISCAS89
Privacy
Crypto
connection
HWMP
sensing
DTCWT
##affe
ADVISOR
Kuhn
Statecharts
CIFAR
##culus
EBCOT
Nucleus
##ueuing
Chameleon
ARM7TDMI
VegaPrime
2K
3B
Anal
Baseline
CoS
CRA
Copy
Dynamics
EDM
EIP
ENC
Evaluation
FCD
FTA
Gri
GPP
GNC
HCS
Hyp
Loss
Mam
MPE
Miller
NEC
OLS
ORC
PEC
QPSK
RAN
SFT
SRS
SCAN
TRS
Tail
coverage
doc
hoe
mu
mp
mem
patch
ther
wid
##Fe
##FLA
##Frame
##uin
##kW
##lip
##ew
##DNA
##Dyn
##mod
##mary
##2＋
##YN
##Word
##812
##vement
##frame
##oring
##ara
CAx
##ises
##reement
##oment
##omics
##PSS
##ouv
##chor
105
##adula
##PIC
##ifold
JavaEE
RFM
Visio
##pply
##ensen
##TPR
Continuous
Argo
DTMSN
ATA
CPLEX
ste
shared
Direction
CVSS
WinDriver
##actory
parameter
Tracking
Phone
MFI
Maxwell
when
CLBP
discrimin
Received
detector
IABC
Camera
BTB
EEUC
TBAC
HEFT
Margin
AdHoe
outlier
assignment
AOV
KFDA
Zhou
proposes
consist
Attack
Epin
Seidel
workflow
LQR
##aneous
measurement
Swift
Peucker
Teager
##61A
AWGN
##ascal
central
##basedon
Tableau
Specification
TMS320VC5402
combined
cyber
Bounding
etc
Constraint
##ounter
Botnet
FEDEP
##level
SCORM
Boyer
Incremental
Beamlet
TWSVM
MC9S12
##tereo
##uisition
Needham
Kronecker
NYSE
2PL
5mm
AEA
BK
BEB
Cs
CPP
Cass
DMM
DHP
Dimensional
FX2
G3
GEM
GEC
HDT
IU
LDM
LAP
Nov
Next
OOA
Obs
PMD
PRT
PUS
PTC
RCA
Roc
RIO
Ser
Sever
TMP
TDC
UB
USPS
WRR
ZC
abs
mob
midd
mRNA
oracle
vs
xml
##OQ
##Ver
##ueto
##multi
##GSA
##Up
##69
##LPP
##o4
##XY
##inter
##eters
##atter
IPD
##acer
##ste
##olation
##amond
##GAN
##igration
FPC
insp
3DGIS
##OMM
ProA
Proection
Proph
Produc
OpenF
##unner
##DSL
COMS
proect
RTU
Spray
##earman
16e
100MHz
Para
SMB
IDT
ARM11
##ached
ISI
Multimedia
PKCS
stochastic
Netflow
DPCM
ABB
##older
imp
Sniffer
resources
DM64
asp
without
ECOC
Cox
Cohen
DFB
Through
##DBMS
transport
##DRAM
definition
Delphi7
SSLVPN
##rinet
Schur
Second
GEAR
compute
bits
WebServer
SiO2
WTK
Detail
##Sphere
LIBS
ODVS
Designer
##oltage
Abaus
MIDP
Health
P3P
effect
SPCE0
Repast
##conn
ns2
WBAN
special
GRASP
GRAPES
IDEF3
tasks
2DLPP
simulated
geographic
Mixed
according
##OKe
Huber
CSFQ
factorization
Datalog
sensitive
Helm
SIMPLE
flooding
David
Teamcenter
Richardson
KKT
YouTube
89C51
STC89C52
Mediator
CC2530
YCrCb
##uetooth
Prophet
010
1M
2DM
260
5dB
720
Audio
BCC
Bug
Basis
Bridge
CNS
Fc
HCI
HART
IED
JC
JST
JMAS
Lyn
Life
License
Mus
OPS
OPA
Rub
TMA
V8
Var
VMS
XL
empirical
gr
ir
idf
kg
motion
ring
redund
s2
tra
##hed
##ralized
##rban
##ng
##gb
##Si
##Su
##Bench
##Card
##CON
##ORT
##cell
##120
##tp
##Det
##ECT
##wood
##worth
##Win
##QE
##＋A
Info
##ulner
##emens
##CPM
##chio
103
##SSVM
CTP
RFS
RTAI
STUN
Autonomous
Store
SDT
Spearman
##eart
Shared
Param
##RM9200
Delivery
GASA
ITK
ITIL
##pler
Entropy
Logan
DAD
ROAM
exec
extraction
Congress
MDE
SRIO
Fisherface
Suares
Directory
AMT
DLB
##sonomy
ArcEngine
IBA
CEO
LeNet
plus
##strument
##Class
reliability
GLR
LMBP
256256
##layer
functional
Orthogonal
coordin
##Process
##eduler
Synops
Movielens
MODBUS
NFR
Priority
##essional
radial
Sammon
POSIX
operator
DDR2
analyzing
DoDAF
Crossbar
##Loader
Geometry
Terra
personal
eMule
curve
Constrained
##Edge
AT91RM9200
OCSVM
WAVE
HSMM
DIBR
21578
Johnson
eXtensible
S3C44B0X
CLOPE
ALTERA
##arehouse
Instruments
CMYK
##estig
Gyrator
##idirectional
Epinions
JMASE
480
APE
APSO
Bet
City
Cooperative
Dig
DOP
DOG
Div
Dynam
ETS
FLA
Ford
Focus
Folk
GK
GNS
Hf
Ir
IQA
KDE
KDC
LRM
LFP
Look
Large
Mi
Mim
MON
MHS
Nas
ODP
PIT
QKD
RET
Ridgelet
SDF
Send
VBS
Way
dw
ep
find
get
gam
identity
iptables
ma
may
make
n1
t1
works
##rast
##di
##04
##03
##Motion
##RIT
##ION
##Fusion
##COS
##Ops
##Nb
##NMP
##coding
##kg
##ko
##kx
##kal
##lan
##lap
##table
##Guard
##oP
##zag
##alse
##rost
##aton
##ican
##station
##olve
##ilent
##emann
108
##ignet
##FTL
##OSAR
1986
##unt
CODE
SOI
STAT
111
11b
##DPA
##izes
##MAT
Exp
##eeper
##istor
altern
APM
APR
##ply
CFP
add
EMG
SCL
Word2vec
##toc01
Quest
MEO
PMT
processes
CH37
dep
MTU
PAD
IIOP
LDCT
LAMP
deterministic
relational
##CHE
GT4
ERCS
##scape
GRID
FRFT
Siemens
ART2
Libpcap
Isabel
propose
Mastercam
TiO2
##azy
However
QSIM
Patterns
Representation
Volume
diagram
variable
1981
Jacobian
JPDA
10Gbps
structured
Muh
Stewart
Blackfin
Mercer
##daBoost
becom
Normal
provide
Shortest
##appa
DevOps
aggregation
Butter
prototypes
CY7C68013
##pportunistic
Pastry
NDCG
ASCII
Hammerstein
Rocchio
SPCE061A
Isabelle
280
After
B1
Bor
Bul
Cg
CPC
CVM
CLE
D3
Deb
DOF
EBM
Fat
FST
GV
GMS
HIL
JDK
Kry
Krus
LRR
MEL
NJ
Nel
Nam
NAR
PTS
POF
Position
RCT
RDM
Rosen
Sus
SSB
TET
Tra
VMD
WLS
Zr
aperture
bot
body
copy
education
give
gadget
iB
let
life
ter
##aar
##dd
##global
##Man
##SR
##Port
##Ra
##RG
##FV
##F2
##etition
##patch
##Ass
##bl
##Eval
##TMS
##G2
##LV
##WI
##WC
##Qu
##xt
##instein
##tium
##tible
##anch
CARP
##ectivity
IPP
##abric
##olute
MARS
##odle
##imation
##optim
##SAP
##DMARC
Java2
CTC
##egation
##egressive
COB
##NAF
117
Visualization
Spline
Sphere
##EME
##umul
SimM
MPM
Shi
SPD
ACD
SNM
##ELL
HSL
MIBS
Ensemble
Hashing
Logit
express
expectation
Neo4
scaling
DRLSE
##ending
Topk
TCL
PBFT
Modular
strong
Def
Moodle
##logN
controller
PLL
HPF
BSD
TAG
Agreement
PNML
SQP
##monic
classifier
NEH
Workflow
MSTP
Cellular
Atlas
Ranking
abstrac
LQG
##uckoo
Peak
Twin
##laboration
##ooperation
neighborhood
Optical
1982
AUTOSAR
increase
crossbar
Probability
Probabilistic
Colored
##figur
eCK
Bootstrapping
VDX
##Access
Revit
##autz
Abstracts
##tenance
UCSD
ETM＋
available
Techniue
Wolf
B6zier
2G
3n
4m
650
ADF
Average
Bre
Bub
BLT
DIA
EPSO
FV
Gbps
Heb
Jan
Let
LES
Lisp
Mad
MOP
MOC
Mail
NK
OMS
PRS
PLP
PNC
PEB
Paper
Pascal
QU
QAP
SES
SACK
TAP
Technologies
Tunnel
WSS
West
ZB
batch
cub
dual
division
gen
na
py
pan
xi
##hart
##Mo
##Matrix
##Sound
##FH
##Form
##Flash
##Cube
##Ni
##Dir
##bone
##Tw
##LY
##LSA
##877
##fi
Webit
##icine
##ascript
##itt
InSAR
##stack
##LAD
##ado
instruction
MatLab
CTA
WindowsXP
##ANT
COIL
COCOM
11a
##DLDA
##elling
##andra
PCA＋
VCG
##10B
##ipeline
MRT
DSRC
Encoder
stable
DAIS
Diffusion
EMI
##603
TFD
multimedia
EPG
##FPM
Thread
Radius
Track
PHB
PMU
ESN
CHMM
##illing
Command
##KEY
Verification
MM5
PAA
PAL
PDES
EAD
record
recurrent
Gran
plan
Struts2
##criptor
PLUS
BootLoader
FMIPv6
MVDR
##pected
TBT
Regular
phot
ISAPI
Moving
729
##amples
median
assembly
Diamond
delta
LQI
protection
Freesc
WMSN
Monitor
DHCPv6
constraints
Format
SDAE
publishing
CRLB
incremental
increasing
profiling
Timed
Wilson
priority
S3C44BOX
##Logic
##cepts
speeded
monitoring
AMLC
CompactPCI
positive
##colo
##plicit
Piccolo
Shellcode
Paul
Planet
Dyna
remote
Abstract
640480
Circuit
Building
VaR
shapelets
Approxim
named
PAPR
840D
##empel
margin
##plorer
Schroeder
Synopsys
Krylov
Freescale
1A
1bit
212
3s
8m
Air
A35
Belief
CET
DBP
DEC
DMI
EQ
FY
FEA
GFS
HMC
Hask
IRF
Identifier
Kail
Kappa
LOP
LDR
Ltd
Lempel
MGA
MDF
MOR
Nyst
NIP
NIR
OMA
Pen
PDD
PTL
PWS
RPE
RNG
Route
Sen
SLC
SMD
Ten
Tre
TDL
UST
WCS
WRF
XA
XMSF
ZUC
after
bloom
cam
dr
drop
draw
during
kn
lab
pS
tc
##rel
##gn
##Match
##SL
##Framework
##Code
##V5
##cont
##cube
##less
##1A
##priori
##tes
##Aut
##Analysis
##m2
##mid
##TO
##Tid
##Ge
##oz
##oice
##WN
##WOR
##fold
##ora
##ingu
##rip
##istry
##ituation
IPO
##reen
Inverse
2048
##ild
##agg
##chip
##used
SIF
influence
##irm
##irus
Adhoe
##ifi
##ots
OpenID
Windows7
##tra
COW
##20T
RBS
113
##DLP
##andid
MP4
##1024
8031
##aste
Behavior
MRR
ASF
##ocks
##plate
Scan
Score
CMMS
Entity
sharing
DBF
SystemView
LSVM
CBA
Models
UGC
Conditional
PRAM
Suite
EP1
##iving
Ann
##1100
Geographic
netfilter
PPTP
##ancer
PBE
III
NDBC
Record
BSN
##Cluster
reliable
Metric
GTX
second
Lucy
##onduct
Desktop
Designet
Surface
Protot
investig
formal
BoF
##ognitive
P2PS
introduce
##ponding
Insight
specific
AspectJ
Magnetic
RGPS
obtain
Lamb
Chemical
reduc
become
people
earliest
property
CUP99
KEY
Obective
private
Waterman
YHFT
Gentle
##cedure
kinds
TMS320LF2407A
LwIP
flexible
Estimation
Stanford
PDIUSB
##agnosis
##DRAW
foodtech
Cadence
PUSH
OpenFlight
Kruskal
##figurable
5s
AK
Bank
BLD
Count
DIP
Dono
EVM
EMF
FIN
GHM
Hw
HMI
Hsu
IOC
Ka
Kap
KMS
Koch
Katz
LST
MFT
MEB
MOT
MMDB
Maya
NDS
P0
Ping
Pot
Park
PDL
PIR
PFP
Pocket
Predic
RX
Ros
RRAM
SZ
Tes
TIM
TCC
WIS
WFS
Xpath
ary
belief
dynamics
ic
know
metric
wire
##rich
##iang
##Sch
##Str
##uick
##cr
##151
##D12
##by
##9X
##260
##Test
##Tools
##Gu
##X3
##v1
##fu
##field
##HOA
##onstr
##ete
##any
##anium
##elau
##rod
CACHE
##rease
##SPM
##stone
##ols
2025
##opus
Property
PSVM
TCPW
OpenScene
WindowsCE
SDO
SAMP
Shadow
USBKey
##istory
100m
algebra
Clu
forwarding
##thesis
ACID
AP203
1300
PKC
MILP
Intent
NUST
Fisherfaces
##aint
175
Strong
TSC
Words
AUML
Translation
Good
Asynchronous
##1500
Smooth
128bit
EDAC
Localization
ETH
SGML
LFW
DSMC
WPAN
Zhao
Authority
LANDMARC
McB
##inski
Swing
smart
Mealy
##chronization
##olerance
1987
CLAHE
SemEval
Passing
structures
Connect
capability
because
SDSI
early
##ceptible
GaN
KCCA
among
balancing
passing
sketch
Riemann
verification
bootstrap
##duino
SEDRIS
experimental
Dropout
limited
makespan
HACCP
Codebook
universal
Tamura
principle
RecurDyn
GloM
IRIG
##skii
##zyk
##rehensive
##leneck
KITTI
Turbine
Cassandra
Hebb
OpenSceneGraph
2F
AXI
BSA
Bord
BBC
CX
DMP
DAM
Fole
FLEX
Follow
Feder
Gi
GAS
IWT
IWS
KN
KHM
Lens
LWT
Mine
Mos
MMP
MGS
NSP
Ok
Pop
Pack
Pax
Pspice
RNS
Road
Tk
Tolerant
UCM
UCL
Undo
V6
Von
VOF
WMI
cs
page
sys
##06
##Runner
##OV
##N2
##cale
##ez
##1X
##tec
##s2
##sen
##2A
##UF
##windows
##oen
##340
##＋T
##＋DSP
##Zone
##vin
##oregressive
##arn
##ario
##icro
CAST
##stance
##DAC
##index
ARIA
##DMR
TCPN
##overing
##DFB
118
Chrome
##izard
DDDAS
MCR
MCD
HTN
ATN
DCL
composition
Compiler
Reader
Reference
MIR
##ract
star
CFX
Conver
##ignistic
##outh
span
SCF
##atix
##entiment
scal
DM9000
MEX
ArcObects
Bluetooth
Forward
270
DirectSound
##1970
Deform
recommendation
TOE
##logic
News
Curve
GT3
PNG
FRGC
Edition
Render
Shepp
CSSCI
Tsai
consider
Earliest
CorelDRAW
P2DR
##12864
##IQUE
trie
##Chart
Grabcut
SDAI
Silicon
LZSS
##ottleneck
Neighborhood
electro
Bellman
##ervisor
Centric
Central
SPRINT
Cardinal
building
Mobility
XForm
products
PCI9054
Organizing
Friend
Intelligence
Billboard
GHSOM
Ultra
OMRON
Crowds
LOTOS
DTLZ
Ambient
CLARANS
GECISM
Folksonomy
GNS3
gamma
COCOMO
Kailar
Donoho
Tesla
Foley
AZ
APN
Ath
Ben
Bri
BCD
BTC
C0
CPI
Crawler
DML
DRP
DAP
DELP
EK
E2P
Einstein
FUP
GST
HIT
IJ
JIA
Jensen
KT
LMA
Last
Lex
LFC
LON
Main
Molecular
NAN
Nonsubsampled
O4
Ps
QEA
Rest
REC
Sal
Seg
Salesman
There
Util
VN
WO
WN
WCA
Wish
Wait
Yao
anal
cc
euation
fib
finger
gl
lay
length
necess
pay
rev
wide
##Mine
##IK
##Face
##File
##Cuts
##9x
##EV
##Es
##TESLA
##UKF
##ying
##yle
##oti
##8i
##xing
##H3
CAVE
##isch
##leman
##ilar
##oday
##MSD
##opia
Interaction
##essel
3DNoC
PSR
ARG
ARBAC
##otated
##trans
SOP
Step
##BSCAN
SpMV
MP2P
Shuffle
Extraction
##10K
MSK
##estination
ARMv
DCN
##OPHET
DSF
ISDN
ITO
compression
Read
static
construction
LEON
##RTC
DPD
##2410
read
CDR
##ains
Mich
Mininet
LabView
##artan
Director
within
mini
EPF
TopK
interoper
areas
annealing
##shell
##ularity
OFDMA
Weka
##CLOS
MMX
PDU
CLIQUE
MIMU
recovery
Scholar
MLF
##log2
industry
Like
Biom
LPT
Sockets
period
IFFT
developing
ARTool
WTB
Springer
OSPFv3
MODEM
Diagram
##urrence
IVI
Median
Medical
Medoids
SISO
HDLC
HOOPS
##ways
VOQ
VISSIM
##greement
##abilities
shortest
EPIC
10Gb
approaches
AmI
avoid
4000A
JFFS2
Macro
PERCLOS
Paterson
Institution
provided
automatically
checkpoint
Warping
Affine
LARPBS
Impala
80C196KC
statistical
Ipv6
GMDH
shear
H1N1
warping
corresponding
parameters
HDTV
mobility
middleware
Helmh
SimMechanics
A356
PDIUSBD12
Hwang
GloMoSim
E2PROM
NANDF
2A
2dB
AMF
Bir
Bottom
Ck
CSB
DIM
DIT
DOC
Draw
Degree
Fork
FAS
FMC
GDA
GAM
HCA
HMS
HRT
H2S
HIBE
IMD
Jones
KMC
Kend
Kru
Kautz
LLT
Limit
MMA
MTA
NAP
NRS
OI
Press
PnP
QL
QGA
Rice
ROD
SX
SYS
Tb
TDP
TIC
TCD
Techn
TRBAC
Training
VOR
VDC
Ville
XRD
ax
bre
cT
cook
cover
ciphertext
candid
div
even
full
feas
mechan
morph
pub
perm
tel
ternary
tuple
v1
von
where
##rt
##05
##Machine
##Switch
##Page
##Based
##VID
##kins
##lic
##pm
##print
##band
##mg
##wal
##Lib
##oA
##3N
##＋B
##inical
WebGL
##001
##rolet
##iction
CAL
##SPN
##cho
PS0
##ually
##uron
CORE
proxy
##IMD
116
WSC
##earance
SAF
Shark
CSD
Arduino
SART
Flux
##iance
ADE
MC68
SMI
SM3
HSE
Scopus
##126
Compressed
MIX
stack
ICU
LSR
ROLAP
##antage
adop
adust
reasoning
PROS
PROPHET
MDX
entity
SRD
SCH
##encoder
##eneration
##ively
##rowser
ArcView
any
PPCT
apply
dependent
Hello
Maxim
Leach
CLPSO
Schmid
plane
##Station
RMT
PLR
LiNb
Bootkit
IRIS
cnXML
449
Agilent
NSGA2
TBFL
Triang
JAAS
AFCM
OPTA
GNY
VS2010
select
##regate
THEN
XScale
##putation
##Spring
EPCglobal
LLVM
DFTL
LPCC
Manber
##gines
AT89C2051
McC
Integral
EHW
##ateral
toolkit
Runtime
Output
various
Magic
Update
mixed
reviews
complexity
Patran
TrueType
320240
Sensitive
balance
FVC2004
SINK
BVH
WfMC
postdoctoral
possible
Gerstner
Credit
Godson
HSPICE
Neumann
accuracy
FLAC3D
McBSP
XForms
DELPHI
2PC
8000
AXML
Bt
BY
Bing
Cyp
Clear
D1
Doc
Dam
DAN
DEB
Ec
EBP
EEC
EHA
Fil
FIB
FRAM
Gil
Gbit
HSS
IIM
K1
Ky
LOM
LUV
Length
Mp
MJ
More
Mechanical
N3
Nied
Nature
Pad
RIS
RDA
SJ
Sift
Supervised
Tit
Tier
Tian
TBC
TEC
Toff
Takag
UR
USAN
UWSN
Wid
WSM
ZF
ZL
ZRP
agreement
blog
cop
cooperation
fil
iD
lb
pic
ray
route
risk
series
zer
##hul
##hord
##rl
##grid
##09
##SLAM
##Ph
##Im
##Int
##CCA
##Off
##uC
##eti
##130
##treme
##AB
##bner
##sung
##my
##mat
##more
##EI
##Eye
##Table
##L2
##oit
##Wi
##fit
##inn
##info
##orst
Webshell
##arth
##estry
##roke
##rity
CAF
CAJ
MAN
20000
107
##irror
##CTP
1955
1927
##egrity
proections
##ovskii
Challenge
##ionics
##ordan
Simu
##ieve
Shader
##iband
##105
##ramid
SPAD
##ipment
ATT
Alt
Al2O3
DCE
GALT
DSG
CPHD
OSN
Apla
CME
Composite
conf
##RAID
ICD
##uption
NETCON
ModelSim
##LPA
##ONOS
repl
engines
##artment
act
activity
DMU
ECSSD
chang
##ividual
Topology
##GSI
transition
RPG
partic
Quasi
Traveling
ans
PPA
PPCA
Imag
ESI
Comm
SEWM
SLPP
Verhul
ISO9000
iSIGHT
trend
BMH
FTT
S3C6410
cnki
authentication
GTK
register
perform
VPML
Corpor
outstanding
##oha
OrCAD
grams
1979
##atting
UMH
atrous
##7714
##rasovskii
analytical
ARM920T
Broadcast
PROFINET
integral
update
Symmetric
automata
##ponential
MULT
HFSS
Canetti
FBG
Daug
studies
Monad
Lonworks
Infiniband
ICCD
STAGE
DASH
improvement
signature
Blackwell
EWMA
earth
described
tableau
summar
Certificate
Validation
called
Lingo
TMS320C6416
##medi
QualNet
volume
##OpenMP
idea
PIC16F877
Javascript
Klein
effectively
##ggered
Azure
##Index
##＋Hibernate
Tetrolet
brief
Nastran
DAISY
Borda
shearlet
Kendall
Toffoli
Takagi
Verhulst
532
550
Ak
A3
Aho
BSM
BEC
BWT
BOT
BIB
BLAS
Bilinear
Cn
CRP
Cold
CEB
CWS
Caching
Df
Dice
EDL
Four
FWA
GLA
GNN
Gir
HPS
Hod
Home
Heterogeneous
Io
IAM
IGP
IHE
Jordan
KI
KDA
KICA
Mn
MDM
Mart
MFP
Mises
NDM
NOR
OQ
OCP
OWA
PDC
Pseudo
QV
Riv
TIS
Tap
Tid
TER
Termin
Tiles
USM
Wed
WAS
Xu
X2
XTR
Zyn
bbr
dc
evalu
four
fusion
further
html
iM
iT
live
law
mol
made
m＋n
ow
pen
pack
ultr
vision
wi
write
##ahead
##rate
##ii
##Media
##R2
##Res
##Rec
##REC
##Reno
##Col
##VIS
##Vector
##lard
##east
##ball
##search
##mW
##GEP
##LPC
##List
##＋P
##＋V
##fish
##HIFT
##zip
##onder
Weber
##alar
##roker
##teria
##rey
##idence
##chhoff
Interactive
10ms
##iger
ARS
##otes
##osp
1956
CPU＋
SOFC
SONET
##NAL
126
11p
DSP＋FPGA
NSL
##ours
1600
USB3
Extranet
MSF
Click
MRE
##exagon
MCE
ATO
forest
DSL
Simulated
Labwindows
##nik
ASI
isp
OSC
ITD
Scaling
##asser
example
##antom
AprioriTid
reference
MDI
ensemble
immun
ADAM
EMIF
170
##IRIS
scan
DRD
nefu
##rowing
Elastic
Asy
PMVS
PPR
##show
INF
##135
before
Move
TOSSIM
RAID6
Rece
Recurrent
S3C45
Toolbox
maximal
BFO
Polar
SBR
NLPCC
FRIT
Marr
Marc
generator
BBV
BB84
TMS320C54
JSEG
AIRS
Detector
MP3Stego
subspace
maps
medical
FOX
MQX
Qtopia
Pru
768
Samsung
ONU
effort
Bruin
Early
importance
4GHz
better
Cyberspace
Navigation
Honeynet
prec
Connection
normalized
SQLServer2000
JFree
Wildfire
IKONOS
advantages
Handler
Balance
##rustes
Krawc
Analytic
SlopeOne
Evolutionary
GDI＋
bagging
broadcast
##fferage
Locally
##erreiter
CAMShift
PEPA
Wallace
scientific
saturation
Boolean
Witness
widely
##ulnerability
##optimization
Bubble
##LYP
##onductor
Kruppa
Niederreiter
Daugman
410
6C
A4
AX
AJ
ASB
Aval
Augmented
Bic
BAR
BDE
Burst
Cand
CERT
DJ
EAR
EEM
EVI
FK
Fer
Find
FMP
FFS
Factory
Guard
HDS
HTP
IAR
Kent
KAD
LAC
LTC
Loe
LFA
LISA
NST
NBC
ODL
ORP
PGM
RJ
Rail
RWA
Risk
Redund
SSS
Ta
TAS
Tech
Vehicular
WV
bring
dl
due
feed
gain
hue
heuristic
molecular
orientation
packing
si
switching
typ
trees
velocity
x2
zier
##hu
##ren
##det
##iu
##MIS
##S2
##Sec
##Bi
##Bank
##IRS
##uist
##core
##server
##211
##214
##Eli
##WG
##QGA
##811
##fox
##enario
##tio
##ana
##aries
##itrix
##acc
##rew
Inception
##nday
QoSR
10dB
##igher
FPT
info
Proportional
PSC
ARE
##PEN
##LSH
OpenD
OpenType
Openstack
Windows95
COA
RBPF
##NAS
121
127
122
1100
Chart
Character
##pper
Start
##ellow
##orton
SDD
SDSS
Spartan
##EMA
##umb
SSF
DDos
8086
Actor
##isted
MSO
MSVM
##ysl
ADT
Alop
Albert
##perature
RGBD
those
threat
Apri
ITER
##plot
CMR
##ractional
concepts
216
Solr
ROV
##RTOS
Conf
report
CGR
Zigzag
##asick
restricted
TPCM
##entiated
##KFCM
commit
DME
227
##401
ICAI
Annealing
Thin
MBF
AME
arrival
translation
CNM
interval
intensity
Asp
ESC
CHOKe
Forwarding
##unck
MTI
MTT
PBT
PBIL
PAKE
##192
##1939
recent
relative
OMNET
autonomous
Metal
Agraw
NSGAII
canonical
DWI
Relay
AFIS
GRIP
NLMS
SHOIQ
VPM
TLV
Corasick
SQA
subsampled
Slice
Professional
medium
BCG
BOOST
##crypt
represent
McEli
Dispatch
Assignment
Intrinsic
QSAR
solving
WBEM
NXD
ESPRIT
Barrier
diversity
Ansoft
visualization
Optimized
KDDCup
Glass
combination
reduction
Communications
VEGA
connected
cycl
##Logo
balanced
head
##processor
##processing
guided
gateway
Sciences
TMS320C6201
prototype
B3LYP
LIDC
Spinning
GMRES
latest
Stirmark
Acegi
Saber
practical
##ventional
MSRCR
OSTU
fluid
##5509
PlanetLab
NUST603
ARMv8
Helmholtz
Avalon
McEliece
2DS
2DF
3d
330
384
850
Ci
Cel
Cry
DEP
DIDS
Eual
FNR
Ferm
Feedback
G0
Has
HCD
IX
JVT
KG
KPI
Krasovskii
LMP
Lock
M0
MTP
MBP
Mach
Make
NPU
NBS
NER
O2
OWS
Pursuit
RIM
R14
Sv
Sing
Separ
Tu
Tate
TIA
TDR
Triv
USA
VX
VML
VOP
Version
Veno
WOA
WPA
big
ds
fisher
host
hyd
haar
identif
lp
nodes
natural
pin
ping
safety
situation
t2
ws
##dens
##dimensional
##nes
##ners
##gCr
##Sb
##SW
##SH
##Bird
##Bayes
##Rel
##RNN
##FFS
##CLAS
##kernel
##efficient
##tex
##Top
##GPS
##UML
##LUE
##JIA
##fect
##onalized
##orn
##icz
##istr
IPR
IPX
##heet
##ulf
##ully
##aga
##GAP
##adi
instrument
##PIE
PSE
ARML
##FTM
##CSIS
Matcom
##tron
##inki
WSD
MATLAB6
##STER
Stub
Static
1588
##IPT
##raft
Acrob
SPCA
##very
RSR
ADRC
##646
DCR
DCG
##OPT
ACJT
##803
DSN
ASLR
Reeb
LogP
ICDAR
CBCT
144
DVI
##ribe
##olds
SolidEdge
Sunday
String
commer
DEX
ECL
DFD
Win98
Winnow
26L
##161
##eather
interp
MEANS
Plastic
WEBGIS
PPL
usage
##ancement
ESR
ESL
PBD
Weiz
Modes
Modulation
GSC
CRN
Schunck
play
PEG
Recovery
HPL
##OIL
SFL
EBF
generated
GCV
coordination
subs
##atics
EPCIS
EIGamal
##ournals
##onda
Components
ImageNet
POW
PVFS
##reading
LKJ
disease
format
##akespan
BEPC
MapXtreme
WBCT
VFW
Monitoring
SPECK
LZC
Opti
views
FARO
##chiev
Operator
Probe
TMS320VC54
MCAI
eCos
HUST
monitor
Kirchhoff
MPICH2
build
itemsets
Optor
##9001
RUDP
successful
Ceph
Rician
IDMEF
##umerical
Structured
SOLID
Golomb
Thermal
adapt
##roscopy
MPI＋OpenMP
Franklin
Grassmann
ARINC653
Oxford
issues
Hypervisor
Mamd
Lynx
TETRA
PEBI
Haskell
BLDCM
Schmidt
Cypress
NETCONF
Terminal
Prufer
Alopex
0pen
1P
2E
4K
4mm
5V
653
A8
Amer
BST
BOF
Bench
Cob
Cuts
DID
Dub
ENN
EFS
EGG
FAM
FPSO
FFP
FLO
From
Finger
Feld
GRC
GHT
GRE
GQM
GEN
HAM
Hast
Hank
Hong
Html
Heuristic
Ic
IBP
IAT
IRBAC
JCR
Ki
KPC
Mack
MMD
Mey
MMI
Maf
Mbps
Makespan
Ng
Now
NLS
NICE
Nakag
ODC
PRF
PBC
PRA
Prin
Qn
RLE
Reverse
Site
SEED
TPU
TAC
TIP
T7714
UMC
Urban
Zoom
cb
cast
count
had
hyp
likelihood
m3
mine
master
pseudo
router
sf
v6
water
xML
##ially
##Sl
##P2P
##Routing
##FW
##Finder
##ui
##ued
##cache
##kas
##eR
##Del
##bot
##builder
##711
##5A
##moto
##4J
##2DPCA
##Window
##QD
##＋Spring
##vector
##onn
##00A
##eding
##elect
##ict
##ries
##tions
##ecom
##CAPP
205
##ems
##DAM
##idering
##ogen
10M
##SSO
SIEME
Prog
##otonic
##osystem
SO2
RBD
RTK
STT
115
Cheng
##NST
##umption
##INI
RSD
DTV
HTC
Aloha
DCI
DSI
CPL
Complete
station
shadow
DBM
IEEE13
LEAP
##phone
##lood
Modeler
1400
##2440
##antine
adic
ABox
24h
SRG
##ainst
SCN
SCE
Sufferage
Unmanned
##ialog
resp
MPLSVPN
TSF
DM3
ECR
Coordin
DFP
##ORE
Thom
Quorum
Phoen
Applied
Asia
##shot
##shall
deployment
MOV
MOLAP
##illa
##144
MTD
FScom
CRH2
Definition
MIMD
unscented
uncertain
300MW
##finite
Recursive
HMRF
MVD
##FAST
##enger
##position
DWF
Triple
Myrinet
##value
Creo
LoRa
Itanium
designing
MESH
Linked
Synchronous
Automata
##HMIPv6
Moran
WPF
##hemical
##urrency
Microchip
HLR
ICTCLAS
LUCC
Functional
preference
DDR3
FIPS
studied
##emiconductor
Kano
KSVD
IXP1200
demonstr
EVA
centralized
iPad
OPENGL
ranking
implemented
Viola
Developer
Bigraph
offset
JFK
PXA270
##arsity
Labeled
TGV
Petersen
sym
symmetric
criterion
Layered
provider
Dragon
VisualC＋＋6
poster
relationship
EBSCO
FVC2002
##apped
spectral
DATA
E1Gamal
Speeded
expansion
Gentry
EASY
CCTV
Arimoto
BGP4＋
Hydra
relevant
relevance
Morphing
WSANs
##groups
Failure
aiNet
Nyuist
##celerated
BUCK
Customer
HSTCP
difficult
COMSOL
Paxos
JIAJIA
interoperability
PROSAC
##etitive
Tapestry
S3C4510B
Krawczyk
typical
Weizmann
Mamdani
Nakagami
SIEMENS
2T
3R
433
610
911
A＋
AOD
AIA
Bel
Bem
BMS
Bos
BRT
Brain
Che
CFC
CQPSO
DDP
Doo
Dwar
Droid
DRC
DOL
Dolev
East
EIT
EDC
Fa
Fram
Honda
IDD
IRM
JTC
J48
KH
LPN
LRD
Mul
MEM
MBC
MTL
Mbit
NY
NCA
NDP
OE
OAM
Pin
PNS
PDB
RDS
RMA
RMF
S6
Seed
Size
Switching
Tar
TEA
UDT
U2R
VCM
VST
VAS
Velocity
VLAD
WH
WIC
WMF
Wright
bottom
bottleneck
cat
card
diss
evol
fix
fuzz
gene
hom
lg
land
mask
nucle
pc
pursuit
tan
trac
wrapper
zh
##hun
##rared
##080
##Mbit
##Padula
##BV
##RPC
##Fs
##Optimization
##V2
##Vision
##uition
##mola
##Earth
##win
##WR
##WLAN
##QF
##QU
##3d
##X1
##＋N
##vas
##vious
##Hs
##inf
##eberg
##arial
##entric
##iser
IPA
Influence
##SPT
##omer
##ids
##agraph
##ectorm
##avigation
##usa
10s
FPM
they
ARAN
GIST
Open64
OpenGIS
proved
##IMO
STN
STFT
Change
##lets
##CCPU
NSF
NSC
##ander
##izable
##earn
SAO
SAGA
PCANet
MPD
Sharing
USB1
Art
##istant
MRM
##RMR
Algebra
##perf
##640
IS0
ISIS
thin
90nm
133
##plier
Scrum
Reasoning
Market
SUV
shows
convex
LEX
##RAD
##HTML
RBFN
CFL
3232
NetFPGA
exe
ref
PRR
RAD
spatio
contour
##ITE
##303
Oracle8i
Union
activ
Strand
schem
ECDLP
CVF
261
##407
##GSVM
##ributes
##protocol
Phill
Player
Bloch
##metic
CH4
Forum
Forces
CIO
FSO
FSIM
Resolution
behav
MASK
simpl
NDQ
recursive
plant
traveling
##logo
##Store
##ographical
detecting
128128
BS77
BM25
industrial
IRST
##versarial
ATMEL
HAL
Metadata
GEPSVM
OBD
TBox
HEU
LPM
LPG
##adeh
PETRI
VSC
designed
Discrimin
JSR
WMNs
RREP
DIY
429
assessment
Manhatt
realize
BOSS
Protection
WINCE
sigma
Board
Heav
TrustZone
Facade
CorelDraw
MUX
efficiently
##othesis
Fibre
SPEC2000
Bandwidth
layered
organisms
LaPadula
experience
3dsMax
slot
S3C2440A
conditions
persistent
Firefox
ECMP
collection
Balanced
Quadratic
##Edit
times
checking
Castelau
1394b
Pairwise
Lingu
party
Erl
Aglets
Materials
PXE
Savant
geometric
Dymola
Reconstruction
##Designer
##athering
JUnit
motif
REESSE
watermarking
established
p2p
YCgCr
##liptic
LIBSVM
VBScript
##umulative
##WORKS
CluStream
necessary
cookie
mechanisms
##ictionary
##Office
CPU＋GPU
##exagonS
immune
Agrawal
IEEE1394
##uitionistic
Phillips
BS7799
Manhattan
1dB
3P
310
460
660
780
A2
Bou
Bud
CRE
Cover
DLM
ELS
EWS
ERBAC
Elev
FAC
Frost
GCT
Ghost
HBA
I2
Iptables
Kat
Kec
Kob
Lay
LAT
LOA
Laser
Laboratory
MLA
MNN
MEA
Mega
Nor
NCM
NTS
Nich
NFP
Nano
Pu
PJ
Ped
PRP
PMA
PFS
PIP
PGIS
POST
QVT
RMD
RAT
ROSE
S0
S4
Sine
Sage
Sier
SHP
SLO
TSB
Tang
UDA
UAS
URI
UWSNs
Vault
Vival
WK
WMA
WMD
Zachary
Zadeh
ahead
achiev
bar
bilinear
codes
du
fram
fps
found
now
rt
rs
ss
sti
trap
tracer
##ht
##aa
##agent
##rm
##del
##nap
##ney
##Pb
##Path
##KL
##FLOW
##C2
##ONA
##uchi
##cak
##lu
##lops
##tz
##De
##Des
##AMP
##AdaBoost
##700
##method
##EDA
##Th
##To
##Talk
##UNT
##Loc
##Language
##WIP
##World
##＋C
##J60
##vel
##vari
##function
##ether
##ately
##icious
CASS
##ited
##lege
2050
2030
##PSC
##amoto
##amental
##MSC
##agor
##ogn
PCMC
##ademic
##ARN
196
##202
##PNMF
proc
STI
STAP
129
123
CCG
Autolis
##RPCA
SDB
Span
SSV
##ERM
CSC
CSO
Explorer
DDB
Act
##ested
Club
50m
50Hz
DTMB
VRRP
IDW
##pers
NPR
##nikov
CPD
ASL
APB
OSID
132
CMDS
compared
ReLU
MIF
##YSQL
Logo
NetLogo
DPL
1800
Congestion
refl
CDIO
MPEG2
Suee
##ixon
##atile
TP33
##iewicz
Stratix
TS201
DMIS
DEDS
EP2C
Win2000
##16L
##168
DLR
##DRR
Question
PHIL
interference
Goal
##1300
Delphi5
SWAT
SLR
ISO9001
CLB
plastic
Recall
NAD
individual
##ultural
##ishes
SOCK
GEF
collaboration
Prem
DTDs
##28J60
VPL
##III
Cloudsim
Edit
could
##335
KLEE
1977
OTG
ObectARX2000
manage
nonlinear
Crystal
HyperMesh
STC12
WAI
display
Photon
BoW
polynomial
Torn
WindML
Assessment
automated
##ivergence
operations
Tomasi
Rootkits
Barab
5000A
PolyU
maintain
##News
1983
optimized
regions
underwater
KMeans
ECDH
pixels
semantics
Temp
##arsa
IPV4
describe
C8051F040
curvelet
metal
Karhun
##Networks
##JTU
calcul
partitioning
authority
CEEMD
reconstruction
##arantee
Hartley
TensorFlow
nRF24
##specially
##Blaze
capacity
occurrence
ENC28J60
member
dwg
EBMT
letters
naive
Rendering
Corporation
UMHexagonS
Loeve
POWER
American
Hastings
Phoenix
Dwarf
PCMCIA
2S
3T
4V
4s
5D
AID
Ban
BET
BHO
C5
C6
CNR
CQA
Dop
DCC
DaaS
Dixon
EGA
ENS
Eras
Efficiency
F0
Fem
FOP
FRA
FVS
Food
GCS
GSSIM
Ground
Hue
H2O
Id
IOT
Je
JDO
JDOM
K9
KDS
L7
LRP
Lanc
L2C
LUC
Mil
NID
NOA
NOC
NARX
OLAM
POL
Pignistic
QCM
RML
RAR
REL
Sb
Sib
Sound
SGE
S59
T3
TBS
Tex
TTM
VDM
VMP
VFS
VRM
VMC
WKNN
XHTML
Zi
beta
caus
counting
cDNA
gov
iVC
mg
m1
my
mal
meas
manager
nonsubsampled
obs
push
reverse
seek
vi
van
vague
zone
##hip
##rices
##disc
##iet
##itivity
##no
##ges
##ged
##Mod
##SVD
##B2
##OFT
##ORB
##ORM
##V1
##VIA
##cad
##kB
##kb
##ls
##ADL
##bon
##5P
##576
##mn
##mo
##mos
##230
##GML
##where
##LK
##LIC
##QI
##van
##HK
##HG
##ertial
##inc
##orama
##etrical
##edo
##ato
CALS
##itter
##itance
Inform
Insp
##stream
20m
20ms
##apshot
##PSA
##ACL
##ecture
1080
10mm
##ARE
inner
##iresh
##oser
1970
##206
##2018
progress
##IME
WSVM
##oof
Station
##uctive
155
Spansion
Speech
165
##herent
Contour
Exc
Exec
##ubes
CANoe
##GBA
HTCPN
DCV
##thmetic
13m
136
##LEO
CMI
compos
Compa
Integer
##orial
##CIR
SUMO
##3200
ICO
##phony
ROHC
DPF
ABM
PRI
enter
clinical
SRML
Neigh
contrast
##encing
DEF
Harn
ECB
##pson
chirp
TopN
##uzzle
arm
architect
DataNode
DLDA
CNT
CNGrid
Apple
Geoh
logical
MOSS
MTV
IBD
FSC
GBR
Resonance
Restricted
Zero
IMT
being
beacon
unmanned
300PLC
PLIB
Onto
TREE
induced
FTIR
autoregressive
Newmark
Indicator
Extension
ExtJS
CPNTools
MSCs
##oising
Reliable
##Information
AFL
AUVs
##2800
modulation
MNF
IFCM
ETF
##nalyzer
##auer
Period
hardware
ELGamal
NFL
MQHOA
BCDM
OODA
##555
Redo
Medium
Classifier
PVT
##flix
##MBer
PhotoS
cm2
Faces
Corel5
EHMM
##561
Walker
terms
Guided
robin
Floodlight
MKL
LoadRunner
##2600
Remoting
errors
CBSE
TMS320DM64
MINLP
Splatting
Connected
Halo
80C51
ISCAS85
YOLOv3
PERM
What
primary
##onomy
streaming
VGG16
##arison
Reuirement
STM32F407
MAGMA
AT89S51
valid
Europ
RCPSP
Closest
elements
experiments
BLAKE
ATmega128
Affinity
Criterion
VIPeR
Organization
needs
##uadratic
Adapter
SRAD
Intellectual
178B
JNDI
approximation
Esper
locally
Aggregation
Sabin
Procrustes
Statistical
PMMA
BASIC
anonymity
SAA711
DELTA
PECVD
Observer
inspection
APEX
alternating
CH375
Madab
pSOS
scalability
LiNbO3
OMNET＋＋
Acrobat
Meyer
Erlang
Keccak
Vivaldi
Autolisp
TP333
Tornado
iVCE
##ireshark
Geohash
1n
2L
380
6dB
8s
9i
960
985
Aer
AAR
AFP
Aerial
Blow
BFD
CED
CRI
Caffe
Der
DPU
DELM
Ev
ETA
EHM
FCT
FDMA
FFA
Forth
FOIL
FHMIPv6
GCA
GMF
GOT
Han
HCC
HPA
Heart
Husa
Iter
IDP
Jen
Jab
JACK
Ls
LDL
Lang
LRF
LVM
LVC
LIB
Mes
Ment
MER
Mak
MWM
Most
Munk
MYSQL
Ney
NLT
Natural
OID
OCI
Pn
PBM
Poss
P87
Rand
RWP
SCADE
Stereo
Socks
Sarsa
TLP
TMC
TDB
TEF
Tiger
UCD
Vin
VCT
VMF
Vox
VIRE
WSP
WVD
WISE
Write
XNA
Yaff
YACC
YARN
ZP
bee
bidirectional
c1
easy
fine
fund
gated
her
iter
illust
k3
mos
making
mutual
near
opportunistic
rol
rgb
site
send
salesman
types
ul
waste
##ha
##houet
##holder
##ruption
##dy
##data
##dating
##gr
##gue
##Mon
##PD
##P4
##PAC
##BSA
##FN
##O4
##OIN
##OVA
##V3
##uot
##ueries
##cial
##lot
##lie
##look
##pus
##pedia
##DCT
##ABC
##bing
##bol
##section
##960
##EW
##TAP
##wh
##oul
##870
##ZS
##HN
##HL
##enu
##ening
##ortium
##etta
Webmail
##esC
##room
##ison
##iside
##ita
##CAI
Innov
20dB
##utor
##owulf
##ilation
##ilateral
##erve
##agment
##2PC
##networks
CADM
##ectangle
##avit
BPE
offer
theiet
##SAS
ARPS
##CSR
##CSC
##CSVM
##ANG
1960
COPS
CPU2000
RBR
124
1280
11MAC
##RPH
##even
Stage
MapBasic
Mapinfo
156
VisualStudio
##ffding
Spider
SAB
SAW
SAH
SSDT
Simhash
##INX
MPT
Shar
Shrink
CSNS
##wards
DDC
SPW
Beowulf
##estation
RSC
SMF
force
##echarts
##643
##6447
GAE
GALI
APA
##ATEL
OSCAR
Ref
Repl
Enron
start
convolution
##phy
##phal
##loid
32bit
Netflix
Condor
PRNG
##udit
CDB
web2
MD4
cliue
176
spring
Supp
Neuron
##DEX
Directional
acyclic
CVRP
CoAP
chord
DFR
EPROM
265
TCU
TC35
AMG
pareto
Phys
Plane
ann
anycast
FCE
Geography
PPG
uses
GMRF
applet
MOGA
##RIO
Delphi6
FSR
SEIR
PBL
GBAS
GB6447
SWF
CLI
##arching
topics
recently
School
Granger
##533
##QMR
NAPI
supports
##ulture
##ultaneous
HBV
maxim
FLI
Biology
Curr
CATIAV5
College
VPDN
IOCP
BloomFilter
NBD
##uffled
VLR
ALG
XSD
news
MCS51
Register
Keren
DOE
Grey
HLBP
Hypermesh
delivery
LINGO
RS422
PVDF
WIN32
Head
Seam
##ceptor
CK＋
232C
FAT16
Fields
diagnosis
Cubic
mainly
surf
characteristic
LABVIEW
Capability
slice
TMS320VC5509
Shapiro
interesting
GPIO
cellular
HPCC
Variation
QuickBird
##henticated
MOOCs
White
KQI
texture
##PLUS
Firewall
##suare
concurrent
KEGG
explor
bounding
DriverStudio
ATPG
SFMEA
Liuid
solutions
Galois
Avionics
Robinson
built
##LICM
Warshall
WfMS
Fried
##Visual
P4P
meet
Effect
##lnfo
teaching
JOIN
TWAIN
Quantization
failure
Study
Underwater
Vc＋＋
##atively
Smarand
help
intelligence
UIDL
CoSa
discriminative
IPDPS
traectory
Mimics
becomes
Nelder
Westwood
##ittle
##1516
Federation
ARToolKit
Limited
##wald
JFreeChart
Candide
OptorSim
Maflab
##ectormachine
behaved
Barabasi
Karhunen
GALILEO
1C
1ms
2h
3＋
312
311
386
4n
420
4dB
5ms
AEC
AWT
BDA
BCM
BOS
BDL
BAM
BEM
BIP
Baker
CLD
Cart
Dro
DON
DUT
Dimension
DCAS
Ez
EAN
EPN
EMA
ELE
EOG
EDB
EOL
Education
Fan
FDP
FIC
FRS
FRT
FDC
Gig
GLM
GFP
Grain
GIG
HSB
HYS
HCPN
Hertz
IGS
Ja
JCA
KW
KJ
LCP
Lif
LDB
MML
MFS
MEP
MWS
MSSIM
Mutual
Mysl
Nodes
OEE
OCM
PVC
PHT
Princip
Penn
QI
RCD
RDC
RkNN
Sr
Son
SEE
SRF
SGP
Some
Series
Safety
Tm
T6
TY
Tro
TRT
TRE
Touch
UDM
VW
Vap
VTS
VFC
VNC
Very
VDT
WU
Wen
WCC
Wood
Wasser
XR
Zone
ach
border
cod
cann
counter
d2
fire
gas
gap
gray
gran
history
miss
nd
pooling
rich
render
techn
train
takes
tolerance
vip
##har
##a2
##na
##gy
##Multi
##Pts
##Power
##Bit
##Bean
##BOC
##BLAS
##Reg
##KOR
##C6
##Count
##On
##OO
##OPN
##NFS
##uer
##uasi
##cd
##kamp
##ld
##lack
##1＋
##part
##tax
##tools
##bal
##best
##sm
##784
##motion
##EAM
##Touch
##Gate
##Group
##URL
##Unit
##worm
##wrap
##LOG
##QUE
##＋SVM
##ZL
##ZZ
##filling
##He
##Hat
##zilla
WebView
WebSocket
WebSphere
##roma
##routing
##asure
##ecast
##ternal
IPCA
##access
##abe
Inspec
##omation
SVT
200PLC
##CPA
PCD
109
3DR
3DMax
Proections
##iral
##CMC
CTV
RFB
1946
##SMT
##PNC
SOFT
RBA
##NAP
STDP
CCI
WSFL
##DLPP
DSPN
DSPs
Stacking
##ands
151
152
Spar
SAI
##umn
##uments
once
##ensim
CSN
CSLBP
Acuisition
MSW
Bei
GPSO
30m
100ms
##iant
Altern
GAL
GAPSO
DSO
##ynolds
thread
##ought
OSEM
##ifting
Scope
##encephal
composite
Reynolds
MILS
MIRA
##raction
store
GPL
GPo
CFRP
CBE
##uplex
143
148
ANSI
extract
##245
185
Convolution
##igned
MDB
##aining
EMT
actor
supply
TSD
##eering
challenge
minimal
Anim
##clipse
TCR
233
SPIT
PHDF
706
Phishing
Phantom
##ouss
##859
CHNN
CHAP
ROIs
##RIX
##131
MTTR
CICS
CICC
FSK
FSE
PBN
MMR
CLOS
TVOS
simultaneous
##190
Scheduler
MoM
Only
tracker
LALR
LASSO
controlled
FastSLAM
BSCC
IALM
##Clustering
ToolKit
relax
MVP
##CHER
FLDA
UCard
BioS
DWR
Preis
Supported
BF561
##overed
EDEM
PETS
DSSA
hashing
Generated
555
TEO
##mony
THIN
ChinaGrid
extend
VVA
1972
LLR
DOCSIS
Automated
MODE
ADC812
Crash
WPT
MQTT
NEW
analytic
Protein
Piece
##ategory
Functions
MatrixVB
VIKOR
Display
automation
Swiss
##765
ICMPv6
ACE2005
neighbors
publishes
maintenance
electrical
##ufacture
survey
Amold
ActionScript
factors
##yden
emerg
HUB
Rabbit
Expert
validation
##ifying
GHZ
##Systems
MECHAN
spectrum
experiment
Switched
Critical
against
TDICCD
BSCB
geometry
popular
population
JTIDS
GDSF
Hoeffding
fitting
##1602
TURN
ideal
PKUAS
approximate
JBoss
dataset
Transactions
cryptography
closest
##oscience
FMECA
much
##ouville
##stepping
RETE
maor
CODEN
depth
botnet
P2PSIP
obtained
Potts
Hebbian
Athena
analys
candidate
adopted
picture
particular
Imagine
##mediate
Rivest
cycles
Fermi
Hankel
##kasiewicz
EASY5
S698
PHILIPS
PhotoShop
DELMIA
Jabber
Wasserstein
012
224
615
AOC
AKE
BQ
BJ
Bes
BIS
Bark
Bang
Bake
Cm
Coc
CMD
CLM
Cable
Counting
Cognitive
Ds
DOT
Et
EED
FCP
FET
Fine
FMA
FDT
FFM
Future
GQ
Get
GRM
GIT
GGD
HQ
HX
HMP
HRP
HDE
Heat
HMDB
IoC
IWO
JET
Just
Junit
Kal
Kem
KDM
KEM
Karp
Lan
M4
MY
Mur
MNC
Mount
NCT
Nvid
NACK
Oc
OGSI
PIS
PED
P10
Rod
Ross
River
Sle
SGM
TOM
TOS
TFC
TUN
U2
UMM
VCC
Vortex
VNE
Voltage
WSA
WBC
Wireshark
Xt
XT
bayes
board
c＋＋
dows
eigen
fre
false
hal
home
honey
iL
kN
kW
kin
less
lock
laboratory
mL
mechanical
migration
navigation
p1
sup
sFlow
serial
ty
tensor
voltage
warehouse
xy
##rec
##rations
##des
##iori
##Manager
##Sat
##BASE
##RSS
##RAP
##RUS
##KDA
##KMP
##Fire
##Vs
##uerre
##cos
##c＋＋
##lp
##lb
##list
##eual
##bed
##sinki
##7000
##2K
##E58
##Text
##Gear
##UDP
##UAL
##oat
##QLS
##386
##HV
##zantine
##enisch
Webservice
##aler
##architecture
##rist
CAG
##isy
##ised
##isim
IPF
IPover
203
##ometric
##emon
##emate
##imer
Interp
##avi
BPN
##ada
##ET6
##ETH
SIT
inc
inform
##SAF
PSI
##PEL
##PCD
CTT
##oster
1925
proportional
procedure
SOCP
RTV
CCC
Auth
##ystone
##ellman
NS3
Mapper
Maplnfo
Spi
SSVM
16QAM
##ERVER
##ensis
SimHash
Sharp
CSL
Contain
##102
DDSS
Acyclic
##RSC
##alloc
AutoCAD2002
Parameter
always
##edup
Flat
AD9
IDNC
HTR
APIs
DCD
ISVM
##ransform
ITT
##plating
Refl
stop
IEEE14
conventional
##323
##HTTP
##VSVM
ROOT
CBL
CBMe
NetB
Netlogo
COM＋
18000
##TLR
SROIQ
spread
CUBE
CUHK
HMMs
60Co
##artner
##ITY
supp
TFA
##OCO
DMB
DMR
asynchronous
223
2010CCF
CoM
Coefficient
DFG
Angel
Anchor
Things
AMB
AMDF
IPSecVPN
##111
PHR
interconn
BayesShrink
anti
GeoS
ord
MFR
MFD
CMMB
DEMATEL
PPTL
Impro
VHF
Commer
IBIS
Maximal
methodology
CIG
SEDA
Algorithms
LTSA
IMAC
IMRT
AAF
AAL
GoogleEarth
whole
290
PDCA
Carl
recall
AGM
MLEM
AVF
weak
Recommendation
50000
PLX
match
IA64
indicator
SF6
##spect
ANTS
GFAC
IBMR
##atabases
TBD
Trim
##oisy
100084
SPECCPU
ADS784
FDH
diffusion
EBU
##WBN
VS2005
extension
descriptor
WFMS
WFMC
dirichlet
Linking
Bernsen
##portion
manifold
##ehicles
Manet
Select
AOE
Laguerre
MicroBlaze
Brown
PLSR
NMT
NMOS
firstly
##Viewer
Atom
74LS
Overlap
FreeRTOS
Assembly
##WFQ
##llum
parallelism
PSPLIB
Hownet
CIELab
##768
triggered
CMUPIE
Finishing
##ascular
units
snort
Outlier
Mead
R2L
MINI
Regions
FasterR
Capac
Operational
market
Specific
Halcon
##brock
cells
office
##pixels
##venance
colored
Byte
Byzantine
emph
includes
Palm
Boundary
Signature
##avelength
Mathematical
bounded
##Conn
collision
##Team
metadata
AOSD
Fitting
Panorama
Watershed
Analytical
FDST
microRNA
SNAP
Using
ATmega16
PCI9052
##Casting
MPC860
TMS320LF2407
RAPWBN
Approach
Midori
OnceAS
front
principles
status
statecharts
E2LSH
Garland
NameNode
CLSVSM
Oliv
CAMSHIFT
Rsync
practice
FlightGear
effectiveness
HOSVD
##UGH
MCF5
CONWIP
devices
Relationship
Experiments
Experimental
torus
receiver
certificate
Analog
consistency
Music
Ruby
redundancy
CLEFIA
NJW
Rosenbrock
##TMS320
expression
PCA＋LDA
##control
Rosetta
known
##rodynamics
Friendly
O438
Wishbone
NANDFlash
Gilbert
##matone
Blackwellized
Martin
QVOD
227X
AMEsim
Trivium
##densation
Heaviside
Elevation
traceroute
Doppler
Erasure
Neyman
##houette
CoSaMP
cannot
Preisach
Nvidia
CBMeMBer
1h
1B
1G
3mm
340
4C
680
980
ALP
ALD
BCA
BEE
BIN
BFM
CZ
Cas
Cov
Dot
DLC
DVC
Dry
DIMA
Drive
ECP
EDMA
EDR
EWM
ERD
Evol
FDDI
FGM
FLOW
GX
Gear
GTM
GLO
Gadget
H5
HPP
HOT
HCF
IIC
ITP
IEA
ILM
IWF
IUA
Illust
Iaa
JD
K3
LGA
Lie
Lane
Likelihood
MGIS
MOA
Mill
MGM
Mover
Morton
Nd
NCP
NMP
Nev
NUS
NCD
NBA
N2O
Ot
OU
OAR
ORA
Pd
PEE
Pure
PLE
Pron
P89C
Points
PTSVM
QCA
QMC
Rc
Ranging
Sut
TJ
Til
TCT
TES
TEL
Trac
THP
TIT
TOR
TBA
Torrent
TIFF
Ul
UCP
VPE
VRF
VIN
Woo
Wallis
Warehouse
Xer
XIL
burst
cred
eas
ess
fam
ghost
hor
higher
lo
lower
lasso
lattice
mW
mess
manag
moment
nk
past
pages
pdf
rithm
road
riding
s1
sal
sion
tit
variance
vulnerability
walk
xn
##hy
##hPa
##dom
##ipp
##nam
##Sk
##Sensor
##Prop
##BU
##RSA
##Router
##FB
##Cor
##CRF
##Case
##Crypt
##VO
##VOC
##uk
##cb
##lag
##local
##litz
##pinski
##Dist
##block
##sk
##met
##match
##2t
##TCM
##LX
##LINK
##oa
##otics
##WAN
##QT
##＋t
##8000
##xpress
##HRR
##ortion
##orus
##tish
##eton
##ebased
WebG
WebMail
##alker
##aro
##arithm
##entre
##elp
##rig
##isor
##teron
IPT
##CAE
##letion
##stac
##omorph
##utter
MAI
##LAR
SVI
##agonal
##check
PCRAM
Interval
##avers
##ignal
##adv
FPFH
3Ds
##ires
Adust
Admin
PSML
ARIS
ARED
JavaMail
JavaCard
FPGA＋
##PCR
CTB
##osh
COL
##208
STBC
CCR
119
Charge
##iere
Steg
##ello
##orts
Spanning
SAL
167
##LCON
USBKEY
CS89
CSDN
Arrival
VCPU
##108
DDV
##uba
##EPT
##alleng
RSN
MRAS
DTA
##exel
MCPS
ATV
##thagor
DSMS
ISD
HSC
complet
shrink
DBpedia
##pta
IEEE11
conclusion
DAL
ICL
ICCP
CFB
ROA
CBOW
##loy
##RTT
146
exponential
##24C
##USE
COMP
188
Configuration
##504
CDE
NUCA
RAB
RAW
RAISE
MPEG7
MDR
ent
ADAS
SRR
Microw
##ators
Supply
##rises
CG2014
##plex
Uncertain
serve
servlet
acuisition
multipath
multiscale
TSL
TS101
command
DEN
##mmetry
##research
##ivot
##tocell
TCO
transmit
RPD
Radl
DLPP
SVD＋＋
parts
integrity
Play
Basedon
PMH
##2510
##148
##1400
MTSP
ComGIS
Max＋
MaxSAT
CIPS
SEH
GoogLe
CENP
Residual
Wei
SWR
who
SL811
stress
45nm
PDDL
TORA
##706
plug
AVIRIS
AVHRR
PEKS
##181
Recently
HPV
supporting
Liouville
##Client
BTT
##ILL
GLRT
365
LMed
754
##posium
OBJ
Reliability
Release
regressive
##scan
SHM
FRR
bitmap
OPM
Realizable
generating
SQI
##tively
ARTs
VS2008
##GEMM
##regular
Detecting
##DHE
1975
LLN
Pythagor
OTT
Turing
HCRF
Many
Manifold
Selective
MQDF
EtherNet
BOLD
BOOT
##Scope
##UMER
Zheng
searching
##erkin
Gammatone
AEI
Attached
Epic
##ategies
TiN
USV
##6678
##Trace
6800
RS232C
##orrelated
IMAQ
PXIe
NH3
SKIP
##titution
Differentiated
Methods
temperature
Tele
characters
Status
Honeyd
##oupling
Saa
Capabilities
slope
TMS320VC33
Half
Halton
Timer
##toall
LGBP
Scripting
persp
Lightweight
reduced
symb
gradients
##ranch
Taguchi
DNSS
##SPSO
Signed
amount
Helsinki
health
boundary
details
PIC16C
CbCr
Analyzer
Galerkin
COSMIC
##Meeting
AT91SAM
carry
Davies
CACIS
SINUMER
Scientific
facial
Department
Electroplating
production
Positive
Partitioning
Boyen
portal
Addressable
WEKA
LPC2210
FISH
Structural
dependency
##Applet
AQI
UCF101
predictive
GLSL
constructed
defense
PROMETH
Nagios
affinity
intellectual
8253
Sobolev
CABOS
CiteSpace
Archive
therap
Production
DM6437
2DMesh
Paramics
Dynamo
Butterfly
Butterworth
Positioning
##Portal
##Twig
Dynaform
Nystrom
drug
WOWA
Foursuare
Girvan
Wedgelet
TLV320
Dispatcher
Celeb
TMS320VC5416
0penGL
IRBAC2000
Mackey
Coordinate
NDQJava
Sierpinski
Sueeze
European
Blowfish
Prony
XILINX
##allenges
GoogLeNet
PROMETHEE
040
1GHz
3V
4S
4f
430
440
6s
625
9000
915
AWS
Abs
Bat
Bow
BDP
BRP
BMA
Body
CPE
C64
CIA
CIT
Codes
Cuckoo
Dk
Dar
Day
DSB
DDF
DVM
Dubl
Dialog
Dictionary
EID
EMP
Fort
FDI
Further
Gab
GID
GDM
GTP
Hib
HDB
HDC
HCL
House
I1
ISB
ILAS
JE
J1939
Kel
KLD
Lat
LRT
LOR
Lazy
MMM
MNS
MIE
Mical
Miss
MHC
MELP
Moment
NDF
NED
NNC
North
ORAM
Pth
PRC
Perm
PVD
Princ
Pade
Pipeline
Qs
Qmail
Rot
RMM
RLM
Rend
Rocket
Ries
RING
Rules
Rotation
SPU
Sense
Satisf
Tens
TCAD
TIF
TRU
TGM
TEST
Tarant
TESLA
Ub
UW
UX
VDS
VAM
VFD
Wo
Wes
Wrap
Wyn
WAT
Will
Watch
Ye
Zo
air
augmented
brain
deb
divergence
ec
especially
fp
fri
foundation
game
ground
hough
iC
identifier
k0
kalman
mB
mAP
mutation
native
pm
pRTI
pipeline
rest
sus
seed
society
tab
wS
wait
zig
##hing
##rase
##r01
##dc
##dl
##iac
##norm
##nake
##negative
##MOD
##Per
##Peer
##Pattern
##Br
##BDD
##Rs
##FPN
##C＋＋
##Center
##OB
##VDD
##NK
##NMS
##Notes
##uorum
##k1
##ei
##ek
##164
##132
##paper
##tri
##Da
##DU
##AIC
##soft
##most
##4O
##Tex
##UB
##URF
##wering
##ym
##ySQL
##YY
##WAP
##310
##＋F
##＋G
##850
##vature
##vectormachine
##xb
##Herm
##zos
##inion
##inning
##oning
##onable
##tie
##ette
##alom
##alty
##ecl
##ecycle
##ISDN
##aball
InTouch
##SPR
209
##oms
##omai
MACA
##ulk
SVN
##ilica
##DAQ
##chain
PCT
##ceo
##adig
FPR
SIE
##veill
##CSD
CTD
Openflow
RFCM
COLL
prom
proof
##overs
Matlab6
STB
CCRE
##ithography
11s
DSPTMS320
Stand
Steger
##ellation
basedon
Spread
Sparsity
##ango
SAMS
##uma
SSG
MPB
Shang
CSCF
Exact
Explicit
VCD
##107
##106
MSISDN
##DDoS
SARIMA
Beacon
##kew
Andrew
##RSVP
RSCN
Flink
50ms
DTMF
##RMI
MCOP
MCVSVM
Alignment
Delcam
third
ASE
APPS
ITAE
137
CMIP
compact
compiler
competitive
MIFS
stability
SURE
shading
shuffle
##MFCC
##324
DAF
##RAA
GPF
GPA
##assin
NetM
Netscape
CNNs
examples
4096
CDG
RAG
RAIM
ens
SRED
171
177
spike
suit
multidimensional
Strat
charge
changing
DFI
DFE
minim
EPMM
##uzzer
##clonable
Threat
MBIST
RPT
DataGrid
Radix
##1131
CNG
Transition
6464
##ostor
285
anchor
Ash
Access2000
FFTW
appearance
3500
Commun
SENS
LTR
##ronti
GB23
beam
CPSs
LBT
PAHs
ISO214
CROW
Dez
Deployment
##rick
TDCS
##Shell
Mozilla
MLL
place
##536
NAO
detect
TRW
Camenisch
indic
PFCM
OCLC
relay
BTF
##ropic
Metaball
DHTML
FLOT
GEMM
UCONA
TBB
Bitmap
Triangle
ERR
SPEM
GRO
SHREC
Marx
EDGE
LCSS
WTD
AIK
Orbit
##Protocol
RENS
lead
1973
UPD
SGX
Synthesis
723
##awa
SHA1
FODA
WPD
##238
Watts
Worker
Electric
Zhu
600MW
PIC18
##nessee
GDOP
##biect
Frenet
Viewer
##lines
disadv
USIM
working
RLNC
##uito
links
solved
protege
SEMG
CWDM
SPNP
triang
Guy
Daisy
Grobner
students
Skin
robot
Forms
##liue
Simplex
Outlook
UIUC
simulator
Fiber
INTER
Opteron
environments
##New
##KCN
Telecom
TMS320F240
kmeans
TRECVID
Regional
Notification
Saturation
Caps
SSE2
ISSN100
Base64
EGO
TOP500
programs
LOB
QuartusII
useful
intrinsic
Centroid
Dataset
IEC61970
FHN
include
##uantization
##agerank
blind
SIMPACK
advantage
Handle
Lukasiewicz
Chamfer
CDFG
TCSEC
BDHE
Ptole
ARCNET
Picture
RVIN
flood
##Context
PCFG
TMS320C6701
Eigenface
crystal
##bek
Ordered
Circle
Gerber
Adapt
flexibility
COSMOSWorks
##guess
Segmentation
DMFIA
##Transform
DRFM
following
Spectral
closed
Traceroute
Messaging
Messenger
EXT3
Fixed
circuit
anonymous
correct
SyncML
OAuth2
DM6446
redundant
GVFS
Susceptible
##Quest
abstract
COIL20
Approximation
##irmware
SZG
##Guide
DM9000A
VORON
Kleinberg
Redundancy
##PENDEX
Hasse
ARMLinux
successfully
sfceo
dissem
Linguistics
Koblitz
still
SOCKET
L2Cache
NOAA
Principle
rendering
Beiing
##QLServer
Illustrator
Pythagorean
CABOSFV
TLV320AIC
Dublin
Micali
Princeton
Tensilica
Wyner
friend
##Hermite
##veillance
GB2312
1＋1
2＋1
314
370
540
6100
9x
Ah
A5
AET
AAS
AAT
BCP
BDM
Beans
BOD
BMD
BEA
BCL
Binding
Bessel
CIN
CHT
CIR
Cooper
CRBM
Citrix
Db
DLA
DRB
DER
DIF
Dend
DHA
DQM
DGM
EET
Eye
Echo
Fs
FDL
FTS
FIA
Foot
FLT
Feng
GLC
Giv
GGS
GDC
GRAM
Goll
Gartner
Hg
HIC
HMD
HEC
HEA
H3C
Holt
Hano
IES
IVC
IFA
JI
JZ
JH
JAC
Jess
JCE
KSP
L4
LX
Leb
Llo
LCE
Louv
Mas
MRB
Meg
Mann
MCAM
MPSK
Maze
Nim
NAC
Nex
NVD
Negative
NlogN
OCA
Our
OMD
ODB
Por
POC
Rou
RMP
Rast
RRS
RUS
RMC
RRD
Sure
SEB
SFP
SLT
Semiconductor
TML
TDA
TBP
Torr
TNF
USS
Vir
VOT
Vick
WY
WGS
WPCA
WCE
XW
XFD
ZS
Z3
Zebra
able
amp
baseline
cros
chemical
econ
every
fully
htt
hook
ii
iF
ioz
lar
lazy
mac
mach
mRMR
ni
nlog
ox
outer
s3
sil
safe
stereo
ti
tog
t＋1
##aur
##rd
##rn
##reduce
##range
##do
##day
##iS
##iR
##MN
##Management
##Bet
##Book
##Binary
##Browser
##Rica
##IMM
##Fast
##CK
##C8
##VRP
##VoD
##uro
##utive
##cp
##cod
##kbps
##eLU
##tro
##talk
##turb
##DW
##Dom
##DMS
##An
##beat
##sa
##sing
##script
##780
##EPC
##LMS
##Lisp
##WH
##WARD
##3100
##820
##Zag
##vest
##vous
##information
##tities
##ebank
##aterial
##atoon
##asm
##asma
##asolid
##riod
CAPE
##acti
##reet
##ISD
##SPI
20s
20News
##aph
##utable
##ulo
SVEE
##ndrome
AgentX
##oup
##ilon
##ilient
##MSA
##erved
##agging
##opic
##opark
##2PL
##ACM
##cher
##chill
CAD2000
Interference
often
##ETL
FPD
FPE
instance
Provenance
##irnov
Adleman
PSK
ARI
##tices
##CMG
##PEST
##osing
OpenVPN
1964
1962
##SMM
##2019
##NAT
##NAPI
STE
12m
11g
114
Autoc
WSR
WSDM
##ystolic
15m
15000
SAV
168
##ibil
Extract
VCL
##ista
MSCT
SPAM
##DDR
Party
##edule
Clipmap
Fly
Flask
MRL
50MHz
ADR
AD5
##IEQ
AlN
##echet
ACV
DSE
DSpace
Simult
ISG
CPF
CPT
##seu
SNMF
Apfi
ITL
134
138
PKE
compound
Comprehensive
Rein
Replication
studio
stroke
ship
configuration
##328
2100
##lowworm
GPM
GPCA
CFM
141
ERPs
DPLL
expected
COMPENDEX
Convex
addition
refer
PRED
##Nets
248
2400
RAF
RAU
SRTP
speech
MinPts
##iki
SCPS
Suid
Theme
##DEN
CGS
##515
ZigZag
sugg
Powerlink
commun
compens
scanning
script
DMOS
221
225
char
SNMPv2
ICANN
Anonym
Angle
art
Elg
DataMatrix
CNP
Tru
OWL2
intuitionistic
NTCIR
NTRUS
PMV
##LOPS
PPF
Import
##ships
INFO
##ookeeper
defin
Return
VHR
##138
FSL
PBX
Resources
SWARM
LBA
GSML
similar
##Shop
300m
##705
MLLR
LCD1602
##stral
RMON
GraphX
NACA
SIMON
BSO
TRAP
mathema
OAEP
##speed
ANOVA
BTV
QoP
authenticated
MAX＋
overlap
column
Relational
##duction
Polynomial
Pollard
SBO
659
SHOIN
FRED
MNL
ETO
VPRS
keyword
Loader
NBTI
TMS320C5402
GCR
Deterministic
levels
##887
##Spot
LLL
Sets
Sheffer
LFR
associ
##aotic
Morris
WPDL
AO7
UNIWARD
##tings
RedHat
Nonnegative
AVS2
Authorization
delegation
Broyden
Frechet
SPSA
WAF
##IGN
Pruning
Alltoall
Subspace
Benchmarks
forming
Bould
ECAP
USF
VIPS
Torue
RLL
##xygen
Windchill
##TRAN
Brush
Bragg
Sweep
pref
previous
NiosII
JobTracker
S3C2410X
ordering
Walk
Guest
Gupta
MKP
SERCOS
ILOG
##BIOS
communications
experts
TMS320F28
ENUM
Capture
Muhi
TOP100
BWDSP
Shapelet
Skyband
Tera
Template
##venation
Tablet
prior
sint
10241024
Caltech101
PATRAN
##Ext
CSTR
##ogeneity
ADINA
concern
Cyclic
libpcap
SIMPL
Hardware
Balancing
valued
decrease
Euro
timed
timing
According
Avail
directly
spectroscopy
##ipheral
Combined
Davis
Used
Yahalom
BESIII
Mahout
histograms
attacks
##Toolkit
TEMPEST
miRNAs
FPS200
Massive
Collection
broker
TDT4
##uadric
SRTM
statistic
Credal
OASIS
log2N
##coa
##＋MySQL
Reconfigurable
178C
greatly
PMLSM
##CUDA
SketchUp
ADPCM
Golay
euival
Farid
Armio
AltaRica
Symposium
SmarTeam
##readsheet
##ppaal
PayWord
8254
DenseNet
Sobol
Initiation
enhancement
##Detector
STATCOM
additive
MRTG
Regularized
USTB
dropout
Lambda
##Scholar
##ezvous
##ractal
ARBAC97
10GbE
feasible
publication
Kylin
changes
##＋PHP
OpenDay
dsPIC
Nginx
hypothesis
Progressive
Hydraul
SSVEP
Jenkins
fundamental
HYSYS
achieve
Besov
Bakeoff
Container
CS8900A
Epicentre
DNSSEC
Tarantula
Zoological
##adigm
Dezert
Ptolemy
GVFSnake
TLV320AIC23
Hanoi
Lloyd
Louvain
Vickrey
NTRUSign
Bouldin
015
1b
5n
520
670
710
760
8i
810
8bit
Ai
Aher
AIR
AHM
Bn
Bis
Bac
Bab
BFT
Biz
BTS
Bip
Bass
BOA
BMI
Cp
Cord
Cool
Corr
Ciphertext
Das
DPE
Dur
DPN
DDFS
DISC
EY
EPU
EFT
EOD
ERM
EEA
EWA
END
Euation
EDCF
FGA
FOD
FLC
FEP
FIT
FOR
FTC
Found
Fish
Fred
FEPG
False
Foster
GSB
GBP
GCD
Hit
Hom
HID
HDA
Hur
HPN
HFS
HRS
HKS
HOST
Hbase
IEM
IEP
Ide
IQPSO
IGSO
Ji
JSt
Jerk
Joom
Kh
Ko
KX
KEE
KPP
Kang
Kane
KNX
KMSE
LIM
LFS
Lip
LLD
Lai
Ming
MVS
MLM
MUL
Mechan
MFSK
Migration
Nan
Near
NDT
NGS
Oh
Ow
Ori
OBP
OOT
Opportunistic
Pf
Pac
PFT
Prac
PUL
PVR
PACT
Pagerank
Q2
R3
Rans
RSB
RRM
RRC
Right
RNP
Sf
Soc
T4
TRM
UH
UIS
UIC
Ubi
Vl
Vm
VU
VJ
VAP
VDI
Voting
WTP
WLC
WBM
Worst
XN
Xscale
Yelp
ZR
Ze
ZT
ZMP
Zookeeper
ari
aerial
book
ce
c2
cation
caching
course
dp
ded
dim
driver
destination
databases
e2
eual
fold
gabor
lack
ment
m＋1
mashup
numerical
pNFS
rand
right
rational
ser
sight
sIB
saving
take
uk
undo
vic
wave
＋2
##hard
##aid
##aud
##rv
##rest
##down
##dump
##division
##iam
##nk
##nel
##gon
##gnal
##grad
##MQ
##MAR
##Maker
##Ser
##SDK
##Solid
##Solve
##PO
##Phi
##Broker
##RON
##ICS
##INS
##KG
##KW
##Cubes
##OID
##uy
##cati
##l2
##liv
##170
##pol
##puts
##tl
##tar
##tag
##DRM
##AX
##bow
##bach
##sis
##sol
##E2
##Task
##Gbit
##USTER
##wa
##L4
##LID
##Level
##Learning
##oi
##3＋
##810
##JK
##HU
##Hand
##HOP
##HUP
##inci
##entive
##ored
##orption
##anet
Weblogic
WebRTC
##ali
##alm
##road
##icast
##asive
CASA
##acelet
Inst
Inser
##apl
##apping
##omaly
##uted
MAB
200m
##ocab
##DAG
##MSS
##MST
##ervice
##agement
##ogle
##usic
BPCS
##EEE
##ARF
##ARMI
theore
3DP
##SADL
Prov
Protoc
Proxim
Protoc01
##CTC
PSCAD
ARF
##ifies
JavaApplet
##OSM
##urance
##urbo
##otropic
OpenACC
OpenURL
Windows9x
##trami
##ANC
##SMOTE
##unter
COPE
prove
##ompson
##MPH
##oval
RTD
##PPM
ChIP
##evance
Stop
Strog
NSIS
SAPI
169
Simpl
Autoencoder
MPA
MPH
MPMS
MPMC
MPRN
Shen
##warz
DDT
##uber
Ack
Activ
MSRP
##alla
##allocation
RSOM
100k
Clim
502
SMN
VRT
IDV
ARM＋DSP
ACI
GAMS
ASPEN
ISFLA
CPDA
##ATM
HSO
##ploit
##123
compar
compressive
compressed
comprehensive
Compressive
Composer
Intensity
Engl
Marking
SUPA
Solver
ICQ
LSE
CBMC
##upal
UGII
exact
40ms
COMPA
reason
replication
reads
ABF
##GPA
encoder
spam
Neuman
NCL
##301
CGH
##MIPS
residual
accept
##entif
##encies
PowerB
comm
##3203
DRIVE
EC2
ECE
chi
cho
EPnP
262
238
Thiel
These
MBI
MB1
arch
RPA
CNOT
PHC
ArcInfo
angle
netshow
##oustic
dead
##890
##133
##LTSA
VoWLAN
CIH
FSG
DirectDraw
ControlNet
IMO
SWE
SWAN
SWOT
SLDA
SLIQ
Verlet
Vertex
LBTS
MMT
Lew
TVP
GSRC
NDK
LDo
Schwarz
plays
##finement
##186
##18000
333
##Star
LSSS
##witz
TIV
TIPS
RMAC
RMTP
GraphCut
LAD
NAI
NAST
determ
BMHS
Camb
indication
EJBCA
##tified
##spoint
ANTLR
##uerying
HALCON
Indication
FLIR
Agile
VMU
OBE
OBEX
SupportVector
Relative
JASM
NIPS
ADSI
LPR
SHARC
Mars
modular
FDG
VPD
EBL
EBNF
generative
dynamically
TTR
TEDS
LCU
TMS320C62
CDMA1X
selective
Keyword
XSIEQ
Orb
WMT
Slicing
WFCM
OTIS
LPC23
researchers
Libs
LibSVM
edit
SLAM2
LVCSR
virtualization
LWR
Reduc
##Science
Medicine
Hyperion
Hypercube
Browse
PVA
##NTR
repeat
WAIT
Pratt
##merging
invol
Subs
RDWT
Xenomai
considering
Atmel
DYMO
Notation
HOUGH
GeoM
P2HP
Multiplexing
##CORBA
##lementary
##titative
Cookies
Silk
C1G2
Loading
Opnet
CNCC2011
##2VTS
BioID
SQLSERVER
Magma
Stateless
obstac
Lamport
Consortium
synchronization
KPLS
improving
HVDC
DCMA
Connectivity
Maor
GPIF
CHINA
##arsat
intra
TGDH
Tabular
Whit
sinc
VGGNet
CSTPCD
Drupal
GaAs
Presence
##MOPSO
RWR
advance
skip
estimate
Decoder
LeapMotion
Galile
##ectively
Middleware
RESN
positioning
calculus
facil
XM2VTS
successive
##enna
Surfacer
Surfacelet
##sevich
Epson
swap
##Markov
##2106
Burg
Build
Ipv4
TEEN
LPC2214
dependence
COSMOSMotion
MC9S08
focuses
runtime
Tamino
utility
SEP3203
coefficients
Additive
constructing
FCCN
ICICS
NandFlash
CELTS
Jetspeed
COAE2014
Chaos
Spectrum
HDF5
Altair
initial
eBCMA
MICAPS
establish
containing
smoothed
PESQ
separation
TMS320C6713
ORCID
documents
absolute
##Verif
720576
ETSI
Quest3D
becoming
Granular
Approximate
Tennessee
camera
TIMIT
Okamoto
Package
Utility
MLFMA
NAPT
applying
McCabe
BYOD
Film
answer
briefly
BIBD
ARENA
committed
2DFLD
##istration
PPLive
Beltrami
fixed
schemes
Katsevich
STC12C5
Lanczos
S5933
Mentor
Munkres
Voxel
Smarandache
CLDC
Drools
EzStego
ELECT
Piecewise
HMDB51
TELNET
CENPARMI
SINUMERIK
Kelvin
Rendezvous
UCONABC
disadvantages
VORONOI
https
Simultaneous
Hurwitz
JSteg
Thiele
0A
1T
2Q
3SAT
5cm
6S
618
8B
8dB
ASS
B0
Bon
Bec
Bra
BRM
BRAM
Coop
CVC
CLT
Cao
Citation
Cancer
Cacti
Dc
Dos
DED
DFC
Destination
Eh
Eb
E5
ERB
EOP
EAT
EEL
EGS
EHS
Eric
Econ
Ess
F4
FQ
Fres
FEK
Fabric
Gh
Gd
Gm
GRS
Gamal
HNN
HSA
HCT
HDM
Hall
HIA
HLT
Ig
If
IML
Ice
Its
IRL
ILDA
Jap
Jun
JFC
JINI
Kum
KFC
LY
LLS
LNS
LER
LMC
Mind
Mun
Mex
Mock
M12
MWorks
MGP
MUC
Mirror
Nat
Nic
Nay
NRF
NRL
N＋1
Ov
OSM
OVS
Occ
Orientation
Pent
Pel
PoS
PRB
POR
P89
PLT
PGC
PRBAC
PQS
Qi
QB
Q3
QFT
Rd
Row
RGA
Rue
RNC
RRR
RELM
Rights
Sof
SBM
Side
Sah
Sony
Tal
Tut
TGS
TCAS
UPC
Vel
VES
VEP
V2V
WZ
Whe
WSB
WIP
Wax
Width
Xp
XX
XSM
XTP
Xie
XEN
ah
a1
aver
bat
ball
camp
cognitive
cumulative
dys
dll
es
fact
hn
heter
il
iH
kP
laser
mA
mid
marching
ov
pn
pk
pull
prin
rating
raw
roles
rotated
sv
section
siRNA
tow
ture
tiles
txt
uCLinux
voice
warp
x1
##hal
##iography
##0S
##MH
##Mix
##Sur
##SIP
##BPSO
##Buffer
##Board
##Rob
##IV
##KQ
##FSM
##CB
##Cu
##C51
##Or
##Ox
##OEA
##Vegas
##uel
##uir
##cn
##kk
##l0
##1D
##pent
##page
##test
##task
##DIS
##Diff
##Disc
##Database
##All
##byte
##site
##754
##morph
##TN
##TIFF
##Gabor
##GEN
##wan
##wri
##Lock
##Lite
##Light
##L01
##oW
##We
##QO
##360
##XS
##＋I
##＋E
##8A
##830
##JSP
##fr
##tia
##tian
##tially
Weblog
##arb
##00K
##entral
##elt
##elle
##rov
##roxy
##icer
##icies
##rift
CAV
CACD
##itated
##itory
##reator
##abit
##abled
##hex
##star
204
202
20mm
##aping
##aple
MAPI
MACS
20020
200Hz
20040
##PS0
##PSM
##ocast
##amm
##oumal
##imin
##ides
##iders
##aged
##CPP
##oge
##chro
1010
##ceed
##ady
##adin
##aded
##NNC
FPRM
##ARS
##ARP
SIRT
PetriNet
inst
inference
innov
##SAE
Proportion
##CTI
Admission
##PII
##PIA
ARAP
JavaServer
##CSE
Maturity
##RBR
##RBUS
CTPN
##LSC
OpenAPI
##trace
##truts
1900
1961
1967
1949
COF
CORS
CONC
##PNs
##ESAC
RBP
RBI
RTA
CC1100
MATRIX
Chop
Chung
##eva
##eves
##ppel
Stri
##ells
##anda
157
##umin
##RFID
16bit
##IPCA
##herence
##LCD
Show
Shib
CSK
CSE
CSIQ
##ibration
##iblack
Arti
##wareness
DDD
DDG
DDBN
##istency
MSI
MSVL
SPO
SP2
SPLASH
##ofi
##EPM
Andriod
30s
30ms
1004
100Mbps
AutoCAD2004
##ipl
##iper
Parasolid
alignment
Clock
Flows
254
253
MRD
MRPII
MCX3
SM9
HTM
NPV
##IAWS
##ECK
ISF
ISL
LabSQL
##nia
##ransmission
CPCA
APL
APFC
AP238
HSR
139
Scenario
CMF
comparison
share
IEEE30
IEEE754
##physics
##ride
##ustain
##up99
145
32nm
NetMeeting
DPCA
Concol
Constant
Condensation
adversarial
##rosoft
##Net＋＋
CDHP
NUM
SRE
SRQ
They
##ITT
acid
##entially
TSE
TSVD
scatter
Activex
DM2
DEK
DE2
Harmonic
CVR
CVL
chosen
DFX
DFCM
Winters
2600
##aki
Animation
##clus
Thus
Think
Thompson
MBA
##anguages
Elast
RPV
##119
CN44
MEDL
64bit
integer
##REAM
Blaze
FCG
Geor
Geographical
999
MFL
PMR
PPB
PPDM
defic
CIOQ
SEG
CEMS
LTI
SWIFT
SWIPT
white
SLU
Left
##kitter
ISO15
GSL
byte
Carving
NDCT
unity
AGVS
MLB
RCR
plate
##Storm
MDAC
500MHz
500kV
PLB
HPMR
IAD
PFSP
OMNet＋＋
0001
##UPF
MAX232
Filters
Hild
##ahn
Indian
##221
Agnet
overall
##reditation
HEV
Relevance
##Inventor
##905
SBD
##atcher
FREE
OPF
IFE
FDES
##177
IOPS
GNP
GNAR
PETSc
generic
Perf
Generative
LCV
Bloomfilter
VSR
CDMA2000
Globe
VTAR
Discourse
##regated
Computation
ALB
classes
subect
MSPCA
##afka
PUMA
##atten
SGD
##ertain
SetP
Transformer
Shep
DIFC
Synchronization
##ondition
MODTRAN
UAVs
005
differences
ELBP
##gets
Portable
AOB
NSSA
##777
LWDF
COSIM
Reduction
##itian
##Scan
Medline
Nonlinear
FFCM
NMEA
Tseng
##flash
Abel
Allen
NVRAM
LUBM
MHI
Atmega
workload
##acterial
Infor
##Track
OCTT
CIEL
MIPS32
Represent
737
ordered
trip
YAWL
Skow
SDLO
TFTP
Crossing
##Chord
##Charts
ESPI
blocking
Outguess
Silhouette
SPEC2006
AUTOD
TMS320F206
JPG
green
Optimizer
Gen2
Genomics
Lambek
ways
MCP2510
biology
Bigram
combining
Centre
ProgrammableWeb
GMPHD
criteria
##Forest
PATH
infrared
concurrency
CC2431
LMIs
##Active
##egoti
Alexa
Decrease
TCSC
##Editor
Standards
currently
EBSN
RoI
carrier
VisualBasic6
guarantee
Usage
CBCL
FPAA
##component
Itemsets
aggregate
AnyCasting
PCI9030
##Component
##Streaming
PASCALVOC
LIDAR
Increase
DS18820
regularized
goal
TKIP
Holon
Axis2
lightweight
Crowd
Osher
TID2008
euipment
ideas
MgO
Statistics
Nyberg
fairness
##HBONE
DETCS
FrontPage
DEEC
Omni
2PROM
MBSE
Solutions
enhance
CryptoAPI
mp3
inspired
Between
##untu
Bullet
Letnikov
ZBDD
pyramid
WISHBONE
##uickly
Population
Therefore
fingerprint
##transform
LEON2
Technical
adustment
WSMO
CEBus
ispPAC
DRDoS
Ferry
feedresearch
Separation
identify
Plastics
IATF
JCR2013
DDPG
Eastman
frames
seeking
enterp
Corel5K
Reuirements
P87LPC
BPEIAWS
FLICM
Current
Vapnik
##romatic
MECHANICA
Trimble
Max＋Plus
CelebA
SueezeNet
Absolute
Western
susceptible
Gollmann
victim
NASTRAN
JASMIN
Galileo
Fresnel
Japan
Waxman
MCX314
Concolic
020
048
1Hz
2O
2DP
2DD
2FSK
3M
390
470
5k
5T
560
530
61970
724
APU
AIP
AIN
Aust
AIF
ANC
AKF
AOT
Bs
B4
BML
BON
BNC
BIR
Boe
Border
Cen
Cros
C60
Civ
Dw
Din
Dif
DTP
Dart
DIR
Duplex
Dexel
Eg
Ef
EDP
ELD
EDT
EFP
EIB
EKE
Fed
FBS
FMD
FOG
FWT
FDE
FLAS
FBA
FKP
Fractional
Firmware
GZ
Gem
GCP
GRP
GRF
GER
Gest
GBC
Gain
GCr
Gini
GKD
Hn
HZ
Hav
Hord
HEM
Hole
HQA
IVS
IRT
INC
IMDB
JL
Jo
Jam
Jia
JBuilder
JSSE
JBPM
Kell
KFD
Kafka
Ln
Lk
Lem
LRS
LGD
Lanch
Mx
Mig
MEE
Manag
MWB
Mutation
MMFI
MEPG
Menu
NML
NCI
NRA
NAV
Nave
NVP
Novel
Niblack
ODF
ODT
ORI
Pod
Pav
PNA
Pool
PFD
Peter
Pixel
Presentation
Pump
Q1
QG
QCT
QPN
Rn
Rb
Rol
RVE
Roch
RJM
SoS
SGB
Sector
S1000
Sentiment
T0
Tz
TGA
Tax
TRC
TXT
Trees
TNAM
UQ
UDS
URP
UTS
UTC
UND
UTF
Uppaal
VPS
VPC
VNA
VIR
VGE
Vensim
WDP
WEN
W77
When
WHI
WRED
Weather
XGA
Xiao
XJTU
Yan
Zed
ZFS
ZNCC
a2
bp
bel
cma
crow
cep
cuckoo
ccoa
certain
dn
dK
dig
dense
far
fractional
grain
gossip
gzip
hD
hol
hap
ion
ker
leg
lex
lines
living
mS
m＋
os
p53
pLSA
row
side
slid
sentiment
tom
tive
trous
v4
vx
via
vert
variant
xP
＋h
##hua
##iC
##gather
##0s
##07
##Min
##Med
##MIC
##Method
##Memory
##Sort
##SEC
##BGP
##BIT
##RW
##FQ
##Flex
##Cat
##CCM
##Chem
##CBF
##Out
##OPE
##Over
##Virt
##uart
##cv
##cox
##kt
##khoff
##language
##eak
##110
##ped
##pre
##pts
##pond
##tm
##tee
##sA
##supervised
##7128
##mL
##m3
##mx
##mol
##4S
##2d
##2200
##224
##2131
##El
##GMM
##GEL
##Un
##UPS
##wave
##ytes
##Li
##Local
##Wind
##Wizard
##Q240
##XC
##X86
##ZA
##viv
##fire
##HRP
##Hub
##zo
##zone
##enom
##engine
##etching
WebOS
##alink
##edom
##ats
##atar
##ically
##asound
CASP
CAES
##isu
##ito
##remal
##CAC
##leg
##state
20MHz
##ometer
MAM
MAY
MAPE
##LAT
##LAY
##ulink
##ndex
##ilab
##emu
##emy
##idu
##idar
10B
BPO
##SSM
FPMFI
SII
SIFF
SIMAT
theor
##irth
##FTA
##trust
1952
1965
##uned
RTR
CC2013
MATH
Checker
Churn
##lett
##DLL
##CCR
Visu
StOMP
Strip
PSOA
PSOLA
158
##ICK
##izon
Spreadsheet
SADL
SAPSO
SAODV
##RFL
161
162
##ensht
##herland
Shot
Shoup
Architect
##eeply
VCH
Accelerated
##estor
GPSS
##iph
Flower
MRMR
50mm
DTR
DTPN
ADCP
MC35
SMX
AT24C
DCOP
##IAD
##achin
DS12
ISMS
Multiplier
Multiphysics
CPO
CPML
ASW
ASRA
OSR
##berra
ITM
HSRP
HSIC
Scilab
CMV
##125
##1210
competition
Competition
Reactor
style
shot
IEEE1516
CFR
CFCA
LS2
CBN
CBERS
systematic
PCI04
147
Networked
##LDER
##501
##505
adaboost
reus
reader
ABV
PRV
##NCE
enable
encoding
##ainting
1700
MinSAT
SCU
SCKF
NCW
VRML2
##atia
academic
TFP
TSR
TSI
Powerbuilder
DRX
ECO
##ryption
CoMP
Coordination
china
challenges
DFL
##aSim
##clustering
Third
MBU
arc
transduc
Elan
PITS
##criber
CND
Quat
PHANT
##problem
##probe
TransE
animation
Blom
Blum
orks
MFF
##shape
INM
INL
INMF
FAO
FAD
CHS
CHN
CHAM
deB
deal
OFB
MTR
IBEA
CIL
Haz
SEO
LTLC
Weiss
BIHT
SW260
why
SLIP
strategies
Leon
Leaf
PAI
PDG
CLOCK
CarSim
Carbon
Depend
recogn
uneual
##Shield
AGKA
MLN
RC6
AVB
AVO
AVE
PEV
##structive
##2C250
determin
BSW
TRIM
BM3
IAGA
PTR
PTV
PTN
PTD
PTFE
Chinagraph
supportvectormachine
FTV
PFI
SFCM
##992
##tify
##sphere
IRR
IRLS
relations
##OLOG
CFDs
##ahoe
ISP1
ISPD
##posed
89S
Trip
##icket
JAIN
##Ins
BF533
PNs
PNX
perfect
modification
MND
ETT
VPLS
HIRFL
ORDBMS
generate
Generic
LoD
NGEP
TMS320C80
AIX
ALV
Edwards
MDSplus
##bove
##eckle
subsystem
##DVB
REACH
##Spider
Fiat
Hermitian
LIRS
atomic
##nown
DIAM
OTDR
OTHR
Synchro
Automaton
ADC080
IFScom
FOPS
Iss
IEKF
##hemet
NESS
BCube
Raptor
RPCL
##3530
##bius
Gambit
repair
##ushroom
WINE
BoVW
ONCD
updating
##insky
CKNN
LQF
Backup
Backfilling
automaton
MGF
CCMEB
GeoTIFF
indexing
NaCl
HFE
Calculus
##Ensemble
PROV
S3C2410A
Multisim10
RFCOMM
DoD
Formal
Lowe
Publishing
##3730
IXP2800
INSAR
INTEL
introduction
GIOP
##Neural
electrom
StarLink
RIPE
Magnet
Keys
Kepler
Legacy
NLPR
Splicing
MarchingCubes
pruning
Lambert
understand
Operation
KAOS
##plitude
Bigtable
Maude
Winsock2
Wilcox
HASN
XBASE
Cryptography
Datagram
prim
##onomic
since
Caltech256
##structured
employ
sensitivity
BUG
Drug
concent
KEYS
MSMQ
CC2420
TrueFFS
Experience
ASTER
explos
skill
throughput
##TeX
FCSR
metrics
Ripp
decre
AKAZE
XeonPhi
Costas
relationships
Summit
UNIC
Closed
FVC2000
##MeV
GWR
##complete
TMS320C6000
rootkits
Criteria
UFMC
hypercube
download
massive
80C196KB
Richards
statistics
Savage
Riccati
sorting
google
SPOT5
shapelet
Wormhole
Nb3S
GUY
GUIDE
availability
Aggregate
Kleene
cryptographic
peaks
customer
dominated
XOY
ExtendSim
PREQ
Vanet
does
GJB5000
OMAP59
OMAP3530
issue
Lossy
Novell
operators
PMTU
Bulk
MOCVD
##Twist
Kapur
##richs
GiST
layout
checkpointing
Birkhoff
morphing
permission
SAFER
Hodg
package
MREIT
Asymmetric
Receiver
FOX64
Bicliue
SSFNet
##crypted
Iceberg
Thomson
Bemstein
fuzzing
##QUEST
##omerative
herit
MCF522
Neville
SL811HS
LMedS
Furthermore
Ubuntu
Givens
Torrance
##aterials
Elgamal
Ahera
Strogatz
STC12C5A
FEKO
dyszz
MEDLINE
Shepard
Skowron
Civil
GCr15
Lanchester
vertex
SIMATIC
##enshtein
SW26010
Wilcoxon
0m
1min
1MHz
1NF
1km
2d
2B
313
4A
5W
630
740
820
860
813
ALA
AOG
AQR
Audit
Bv
Bas
Bad
BMM
BTP
Bend
BCE
Bidirectional
Cou
CVS
CLAS
Clement
Clean
DOD
DLD
DGP
Dah
DISP
DII
Dump
Eon
EDD
ERA
ENF
Fal
FLS
Fun
FMI
Finder
Fronti
Git
Gow
Gink
GIC
Gard
GHF
GRBM
HOM
HAN
HRF
HIN
HED
Hist
HAT
HMF
HOF
HDV
Holder
History
IFT
ICAD
IVM
IKF
IJM
JR
JEPG
Koc
KIM
KRA
KPA
LRA
Liv
LDI
LUM
LDDoS
Mol
MOG
Mik
Meas
Multic
MWSN
M701
Ns
NQ
NPS
NSM
NNS
NMD
NOT
Naps
Noisy
Od
OFT
Ora
OFC
OLD
Obiect
Pur
PEL
PUI
Pick
QH
QCS
QTL
Ru
R5
Ral
RFT
REA
Rain
RIR
RDT
RIB
RHD
Racer
Rectangle
Sap
SRB
SBP
SLD
SWM
Song
SFD
Singer
TZ
Tess
Tux
T20
TPP
TNS
TRA
THT
Tak
Talk
TUD
Ternary
Tahoe
UFS
UBI
USSD
VAN
VHP
Viv
VDR
WX
WPC
WDF
WOR
WIDE
XPC
XFS
YHS
YFilter
ZN
ZD
aim
above
b2
bene
ca
c0
cf
cess
cuts
census
cascade
d1
did
decomp
drive
eID
evid
fo
fer
fem
fork
ftp
fabric
gp
gem
gear
gcc
growing
gathering
his
having
lingu
lapl
ng
nZ
nature
name
pet
poin
puts
pton
retriev
ridgelet
sR
tet
tile
try
tiss
turb
today
uc
ve
wise
worst
zg
##hib
##aic
##aux
##aos
##rated
##dat
##ias
##ny
##non
##growth
##gru
##MVC
##Mode
##Master
##Swarm
##PRESS
##Red
##Route
##It
##KR
##FIP
##C3
##Cell
##Cost
##OLSR
##VG
##Vinci
##N3
##uge
##cation
##lc
##lar
##lus
##lig
##eacon
##112
##pattern
##Di
##DCA
##DES
##Dev
##Develop
##AH
##AST
##sy
##sL
##sort
##720
##560
##5nm
##5643
##4SD
##2n
##2s
##2m
##212
##Event
##TK
##T6
##Ga
##Gs
##Gy
##Gre
##Gap
##GON
##GRU
##Yale
##YPT
##WEB
##WRR
##Walk
##330
##XR
##＋p
##＋m
##＋RT
##Jet
##va
##v5
##vis
##variant
##free
##xkx
##x2600
##H2O
##enium
##ornia
##eband
##ebner
##eda
##edge
##rot
##role
##atures
##MLS
##ritic
##rill
CAPI
CAMP
##terisk
IPB
IPCC
##acent
##rea
##ably
Ints
Incast
Inertial
##olo
##olph
208
##omsky
##uto
##utral
MASA
##ulate
##ulary
20010
200ms
200MHz
##ili
##ils
##ildfire
##emodel
##empl
##PUS
##imax
##imination
##imoto
##erview
Interact
Interceptor
##igator
##ETS
##ETA
##ETER
inux
incast
3DTV
##OMA
Lind
Proof
Procedure
ProVerif
ProActive
##CTM
##ansi
Advent
ARMS
android
##ifar
##ifornia
##CSM
TCPReno
TCPVegas
##PEC
##urora
Mate
##otree
CTSP
##LSDA
##ESH
##ashing
prog
proactive
protoc01
SOT
##MPD
##DFG
##tiveX
##oba
12V
CCL
CCITT
11n
WSRP
Chern
Chomsky
##letcher
##AMC
Visible
##iera
##pps
Staple
NSFC
MapServer
Mapreduce
##ucial
SDI
154
VisualLISP
Visualc＋＋
Spice
SSRF
SSCI
SSOR
SSCL
164
##ensing
AutoLisp
##hertz
Shao
Shading
CSRBF
Expected
MSCS
SPV
SPQ
SPAN
SPDS
##DDT
VBM
Bez
##ofish
WSNTS
304
308
30dB
30fps
##ver6
RSI
100000
Clust
Close
258
J2SE
DTDMA
AD98
MCNN
HTA
ATOS
Alam
##ooping
Delegation
##ECH
##achi
GATE
Servers
Server2005
DSK
DSH
DS130
Multip
AS3
AS5643
##ATE
##bery
SNL
IT2
HSK
HSN
HSDPA
Scott
Screen
Rees
ReWorks
MIG
##oria
states
##ptus
conven
constant
##RCNN
##phen
GPu
GPON
CFO
CFE
##RTH
##LPT
149
NetC
Netw
DPB
DVL
DVMM
DVRP
40ver6
COMT
187
##roll
Construction
245
RAAR
RADAR
MDSS
close
Micaz
2DICA
Minimal
Minwise
##ikert
Suared
##60S2
NCIS
NCBI
contin
contents
reservation
resolve
multilevel
##enced
PowerDesigner
scenario
DM4
DMT
DEPSO
Ada95
CVD
CVA
CoP
##endra
DFIG
EPFTS
Winpcap
TCK
TCSP
##169
SPINS
MBL
AMAC
Elliptic
DataBase
##uilting
PIPE
PIBG
##aunch
PHS
MISO
288
Plot
Asterisk
Geocast
MFE
DEMD
DEMON
PMON
##2500
Implement
GMRP
ESG
ESU
ESCA
CH3
CH3N
appl
distortion
##1375
MTree
Commit
IBFO
SEQ
PBO
PBAC
Resilient
Controlled
Weiler
GoogleMap
Veric
MME
MMHC
vectors
Smirnov
string
PALM
GridDa
##197
Carrier
Dead
NDV
30000
Schne
Mogent
RCO
##MEN
XPL
track
true
##183
##535
NAK
##lobe
TRACE
IAE
31G
MobileAgent
supported
PFA
##similarity
FMG
L2CAP
Robotics
##riving
MAX72
Metrics
Industry
EFG
LMMSE
UCB
##pository
MSC1210
Pref
Pregel
TBOS
DHMM
ERDAS
Related
BFOA
256bit
Polling
PNP
GRe
C2H
SHL
##reter
Creative
ET0
VPR
EDGA
400m
##neighbor
LCG
graphs
##GEI
TMS320C32
IKE2
VLISP
##ohz
Orth
Editor
LevelSet
KDK
##Speak
leaf
Cygnal
EPCCL
375
##attem
##weet
directions
DIMM
ISAKMP
Profiling
LFDA
##porary
Levin
Levenshtein
DRMR
manufacture
medi
medicine
##away
Libra
assisted
HCDFG
MQPSO
FASTTCP
BOVW
CCSL
NOV
LINE
PDEs
Broad
##readth
AHRS
Conferenceon
MPC555
backup
backstepping
Sea
Tiansi
USN
multiplexing
Disoint
effects
##azine
Brute
POSC
SPC3
HOQ
discussion
DDR2S
Twofish
HFCM
IMAG
CWCPM
##mpeg
Canonical
FBI
GCCCE
Groth
Groebner
FIX
CCNIS
template
RIPPER
VISUAL
SCMP
##chronized
LZMA
GINA
##forc
environmental
##comes
RIPS
PMST
optimize
CMPP
ENVI
##ticeable
VAE
VASP
TWINE
longest
powerful
Password
slave
slicing
VFP6
marking
final
Mathcad
SkyEye
Stealth
XC3S
Variety
DARPA2000
YOLOv2
PERA
SEAD
Baidu
Denavit
EOH
demands
##ceptron
Significant
monotonic
Helix
skin
DriverWorks
estimator
##ounc
MOFs
##Mbyte
detailed
Revers
Euipment
##ruin
##plicative
VOCs
AT91M
RESET
positions
Mobius
SED2
SNAKE
Casting
Personalized
independently
WDCT
##alyptus
Culture
Eigenfaces
Pb2＋
Poser
STARE
TMS320C6455
Hotelling
SILTP
successor
LeaderRank
authors
B3G
MRSE
##useum
Collision
WANG
Advisor
autoencoder
FrameNet
TTS4SD
Transportation
##apsack
TCNQ
APCE
Locator
Effort
SpamAss
log2n
Midas
##brand
return
##ophy
Herbrand
WG4
##learning
TLC25
Patching
follower
nRF905
SMIC0
Rhino
##Particle
Charlie
satisfiability
Wardrop
EXT2
Laws
UKCHER
COREL
EPM7128
capacitance
##Interface
Boole
Graham
keV
Initiative
Cosmos
convergence
FluidSIM
Griew
##YNQ
Directionlet
FX2N
absorption
##Verilog
##stead
OPSM
##gboost
NFRs
HfO2
Lookahead
Sendmail
Debug
Nelson
ZrO2
Peaks
Treebank
tcrop
##Automation
Prototype
Prototypes
SDSI2
Maintenance
euations
Michael
Drawing
IMDCT
divided
DEBUC
Mpeg
Moreover
AltBOC
confidence
changed
Commons
BECN
own
##ourses
##13584
TMS320C54X
wsN
commerce
Dubins
hadoop
respectively
LoRaWAN
posterior
posteriori
NYU
Layout
achieved
barrier
##variate
Premiere
measures
##discipl
Vincent
Yaffs2
exploration
Alternating
TUNIE
SPECCPU2000
Olivetti
Sutherland
title
IEEE1149
perspective
##normal
CROWN
PIC18F
Skinner
GDCN
machining
together
##turbation
Anonymous
Brushlet
Joomla
PULL
Ransac
arithmetic
##livious
##ocabulary
ELECTRE
Rueppel
Sahai
toward
MATRIXx
##17799
##componentanalysis
S1000D
W77E58
legacy
sliding
Elanix
PHANTOM
BM3803
ISPD98
ADC0809
RIPEMD
Clementine
IJMMS
Napster
Chernoff
CH3NH3
DDR2SDRAM
SpamAssassin
##disciplinary
0LAP
025
0dB
02C
1S
2p
2U
3k
3NF
4P
4B
432
414
586
6mm
623
6to
6GHz
8V
818
9126
AEM
AGS
AIDS
Award
Buff
Beck
BQPSO
Cir
CFT
CLC
CEA
CGP
CCPN
Course
Catia
Dim
DWS
DART
Daw
Dai
E0
E4
EAC
EMM
EEB
EAV
EFM
EFD
Emerging
Fm
FPU
FNS
FEL
FLP
Feed
Fission
Filler
Fletcher
Gs
Gomp
Gov
GDF
GIM
GDL
Gour
GTA
GCF
Hs
HCP
Hum
Hak
HAVA
HVF
Ik
ILA
IAN
IFM
IUM
Jst
JPS
JCP
Jsp
Kr
Kp
Kas
Kur
Kos
KAM
KBS
KLE
Kenn
Kaffe
Las
LCT
LMM
LDF
Lub
Lax
LGP
LGE
Mit
MMF
MHP
MWT
Meek
Mipmap
N0
Nar
Nit
NGA
NNA
Num
NPSO
Npro
NRR
N400
NesC
Orac
OLT
OSAT
OCPN
PY
PPN
Pred
PACO
P5P
Puzzle
QE
QDA
QWT
QKF
QWS
Queuing
Ras
Rock
RLP
San
Sent
Sac
Sag
SDMA
SWS
Sau
South
Skew
Systolic
Tp
TPI
TRB
TVM
TIE
TLM
Trop
Train
TNT
Tai
Tolerance
USP
UAC
UTR
UBD
UDG
VNM
VDSL
Vander
Vehicles
Wa
W4
W2
Won
WCM
WFC
WAL
Wonder
Xi
XPS
XPE
XOD
XSQL
Xgboost
Yee
Yule
Yarn
Zp
ZE
Zod
ZIP
ZIF
ZLG
ZYNQ
bor
bbs
bius
branch
cu
cp
correl
cancer
dd
dm
date
droid
dyn
faster
files
finding
gy
gauss
hub
ig
ki
kit
keep
lO
ll
learn
mV
nc
nt
n4
nary
oxygen
pp
pf
ple
rm
roll
slow
s＋1
sources
sites
td
tn
ts
tier
tex
tech
tail
turn
urban
vir
vTCM
wav
wall
xp
xw
zz
##hm
##hide
##hai
##hye
##aR
##rc
##ratch
##raries
##dpi
##nter
##MX
##Mining
##Pc
##Pat
##BNC
##Block
##Bridge
##Rem
##Rad
##RST
##Reu
##River
##I3
##ITS
##Kmeans
##F0
##Feature
##CG
##CSP
##CDS
##Cmax
##Creator
##OSA
##OPC
##ORP
##V8
##VMS
##VCC
##Vista
##NU
##uo
##uch
##uant
##uite
##che
##ket
##king
##kPa
##140
##pa
##po
##pac
##pie
##pass
##tin
##tool
##tudio
##D2
##DNS
##A2
##Att
##Analyzer
##bin
##bpp
##boost
##book
##sensor
##552
##mix
##4A
##440
##4LAC
##Tri
##The
##TSP
##GRP
##Gene
##Grad
##Us
##UID
##wt
##wire
##yel
##Line
##Wid
##Wave
##3A
##＋k
##825
##Zn
##ZET6
##vi
##fill
##feld
##xi
##zh
##eras
##erge
##oni
##tiV
##etter
##etnet
Web3
WebFrame
##alt
##alle
##arr
##esian
##esgue
##election
##icating
CADA
CASM
CAPSO
##isible
##itecture
IPI
IPQoS
IPQAM
##acet
##acus
##acts
##rez
##real
##ISO
##stoday
##olver
206
##apon
##ometry
MACP
MAGA
MAFIA
##ulum
SVL
##IDP
##IDT
##PSD
##amb
##amodel
##ilene
##ilating
##eme
##DATE
##PUF
##ago
##opt
##opment
##2PG
##chang
##channel
PCTL
Interconn
SVM＋
SVMDT
BPD
BPOF
##ETM
##ETC
FPCA
FPCM
SIMS
inode
3DM
3DSM
3DMine
ProM
##PIM
PSoC
ARB
ARA
ARJ
ARCH
JavaWeb
JavaRMI
##CST
##CSEF
##PEA
##OSR
##urf
FPGA＋DSP
OpenR
RFN
##label
##trl
1920
1951
1953
##unx
##eget
COCO
COCTS
##MMA
SOHO
##MP2
##oved
##SBA
RBT
RTFT
RTDS
STDM
STDMA
1259
CCH
CCDM
WSF
WSE
ChIN
Chrom
Chosen
Chua
##leton
##ystems
##RPF
##STIDA
##eval
Steer
Stego
NSR
NSVM
SDTA
##anglia
SAAM
##uming
##FSC
##FSVM
##ensitive
##TPT
##former
Simics
Similar
tox
MPL
CSIM
CSNC
CS55
Contact
Extr
Arbit
DDN
##ubit
##ubbs
##rative
MSQ
SPMA
SPACE
CAN2
##axFF
30min
##vertis
100s
##ASH
##ipel
Clo
Clonal
Cliue
Flag
MRV
MRH
DTMC
AD76
ADHD
SMAR
SMCC
VRC
IDSSIM
ATCA
##pert
##echatron
##BCO
##thm
##threading
##IAB
ACG
Delau
Delete
##ECD
##achman
Multipath
Multilevel
thus
thought
CPG
ASK
APTL
##ATION
##bertian
131
##placement
Schem
CMAR
##FCI
compare
completion
ReaxFF
MIML
stri
stake
SUS
networked
DBI
DBL
DBDC
Logical
conference
conduct
DAGSVM
ICEM
ICache
ICUS
ICVR
LSDA
LSWT
ROB
ModelNet
324
3200
Netlink
40Gbps
182
##MCU
##IFIT
reach
realized
reputation
ABO
ABD
ABL
PRPU
##rosp
##udi
webGIS
##GPa
CAPPFramework
MDSA
MD32
enough
closen
SRN
EMX
Mica2
spot
CUB
Minix
Snapshot
SCG
SCUT
Hopen
Hopkins
NCR
NCPSO
contribution
##ITI
Unclonable
TP39
TSO
TSCE
Powerpoint
scene
screen
DMAC
DEW
DRI
DRE
ECDF
228
##enew
##DTW
chart
chaos
##endshape
DFFD
minima
Win9x
266
##akley
##AVE
23dB
##Servlet
artifact
transl
DataWindow
PIK
PICS
partially
##115
CNCP
Quisu
Trec
Truth
internal
##proxy
Transistor
##athML
PhD
Blind
FCB
Gephi
GeSb
PMML
TM5
TMIS
##shop
logk
##IB2DPCA
FASS
GMBNC
ESO
ESOP
CHM
deformation
Comsol
IBF
CEF
PBR
GBN
AAG
SLF
SLLE
MMG
Smear
struts
ISO14
GSV
GSW
CATV
CRH
CRSP
CRRD
300mm
LDG
RCE
##PAKE
pla
placement
AVQ
AVIS
PEX
##structure
RAID1
##Storage
##mbH
##ENE
MDAS
OGR
Graphical
GraphCuts
controlling
DBScan
NATPT
SIMO
BSDS
TRAC
NNM
FTU
IGD
IGRS
Arnoldi
HBH
HBDE
PFG
SFA
##similating
FMO
##spot
##spool
AN2131
##ugate
##UCR
##ticalgorithm
GLUT
MVOCC
##CHI
362
Ext2
LMK
LM6
GEPNMF
TAB
TAE
TAPI
overhead
##romedia
VMIC
OBI
OB4LAC
DWRR
DHC
##Inf
PolSAR
SBG
PN2
GRACE
##valid
##288
IFOA
secret
TLR
Siam
488
EBOM
##onself
Cors
Corner
##neural
##news
TEK
LCBP
ART1
BBR
BBPSO
NBI
NGOSS
IMFs
IKEv1
VLBP
ALL
ALOS
ALBP
BIMF
classical
subset
KLDA
SGNN
LLF
Settings
Slot
UMQL
EINST
FiWi
atlab
Hessenberg
nmCS
Offset
attributes
##hopper
Profiles
002
ELVIS
ODRL
LibOS
POEM
FOOD
DICOM3
highly
MQS
FASTAMP
Diagonal
##239
Searching
BOX
Desc
Descriptor
elliptic
Workstation
flat
flight
HyperWorks
NOX
Electrom
FFR
TLSF
Tsing
Fragment
##uestion
Abilene
AESS
consistent
MHD
MPC85
integrating
Boa
Boor
DYN
Header
##ategor
computers
Overflow
Infected
##odesic
Background
SoftMan
CIE19
Swap
OPENAPI
Peikert
Stacked
StackOver
MUR
##maps
reuired
Calcul
Unity3d
PCR5
Freenet
nothing
Canberra
Guass
Guide
DaVinci
VFH
VFSA
AWG
AntNet
##Checker
##29LV
blocks
Barnes
Formula
Lotka
Silent
MPSo
Answer
Geometric
Fibrations
1602
Cubature
LZ77
CNCC2012
##Neighbor
Neighbors
StarBus
Telos
Magazine
JPF
km2
PGPS
Chemistry
Horspool
synchronous
LotusNotes
Probing
improves
##ikhmin
Eucalyptus
HVIA
SpecC
finish
CMAES
BWFS
BWIP
CYK
##Modeling
Action3D
descent
LGDF
Terrain
XC5
XC6
personalized
Wild
OV76
syndrome
##upervisory
IEC61131
##Report
##Reality
Reuvenation
##Extractor
ECMWF
##uantitative
CAAI
TrueTime
HHL
Mathematics
standards
Constraints
Bund
220kV
##Engineering
DPSA
BDHI
WNNM
NativeAPI
NaiveBayes
GHOST
Certification
db4
floor
GbE
Persistent
magnit
CdS
##Arm
DQPSK
portable
##armac
FDDB
Erd
EASI
Ordering
TCAP
labeling
possibility
OWC
regularization
addresses
sweep
CEC2005
89C52
LPC2294
reuests
eXtreme
universally
Hartenberg
Qualify
ROUSTIDA
OFFICE
pairs
##DBSCAN
GMDSS
Bentley
Cup99
latency
PDTB
materials
NOWs
StirMark
HOL4
SafeNet
merge
Since
##itespace
SHT11
##Parser
rapidly
SRLG
V4L2
n＋m
dominant
dominating
Fuk
initiation
eBAM
satellite
Payword
correspond
Concord
Concurrent
CERN
Taillard
outliers
consists
Serpent
Products
JCVM
Parametric
coordinated
Named
##blaze
Defense
EPSON
Tunneling
python
##Dirichlet
photographic
IRFPA
WCSN
Wishart
layers
##10K10
##log2N
Biomaterials
Macrocell
NANDFLASH
HRTF
break
feasibility
MC68HC
Triangulation
Padhye
copula
iDose
iDistance
##Image
##uC812
actual
SEWM2011
ColdFire
iMAN
Rails
brings
##detection
Aprior
KDDCup99
##nership
commercial
BEPCII
Feldman
demonstrate
landmark
tanh
Algebraic
Bougu
Nicholl
Pedersen
plasticstoday
Photonics
dwgc
Banach
Femtocell
Informix
architectural
SAA7113
mosuito
##while
GLMB
ndn
technical
##ecasting
CLOSET
Ethemet
Sleep
Carlson
Evolved
PEEK
VINCA
essential
##matching
##aversal
Microwindows
HDB3
Wrapping
Shanghai
NetMagic
Ashikhmin
friendly
AETG
GGSN
Lebesgue
Apfiofi
TMS320F28335
euivalent
Ideal
Mechanica
theoretical
English
COMPASS
##entification
JFCunit
Muns
Pellet
##clusive
Elastos
AUTODYN
enterprises
Austral
Rochester
RJMCMC
Tzeng
CAESAR
MAYA
Nb3Sn
heritage
Gowalla
linguistic
laplacian
ptonline
##SwarmOptimization
##＋RTX
Intserv
Vericut
##forcement
Griewank
CH3NH3Pb
6to4
FissionE
Gompertz
Gouraud
HAVAL
Nprod
Tropos
Zodiac
3DSMax
ICVRV
closeness
Quisuater
EINSTein
StackOverflow
0i
0＋
1a
1Q
1st
1Gbps
2r
2nd
2bit
3x
3min
4k
580
596
6L
620
7m
7mm
830
8PSK
924
950
Ao
Af
ABP
Aver
AON
Age
AGP
AHC
AQA
AQPSO
Augment
Aurora
Bm
BPS
BNN
BAT
BRA
BRC
Bart
BUT
BJM
Bilateral
Cro
CRB
C20
Cort
Cour
Cra
CHP
C40
CQM
Cmax
CDSR
Counter
Dm
Dv
Dan
Dark
DIN
Date
DWM
Dcut
DEED
DGEMM
E6
EML
ELA
EES
EIA
Each
EVC
ELP
Eval
EGR
Esch
Fab
FID
FVM
Fall
FVD
Fok
FKA
FHE
GGA
GPE
Gur
GOA
GMI
Guil
Gathering
Ganglia
H0
Hux
HER
HTS
HRC
Heter
Hoff
Holl
Hung
Hits
ILE
IHT
IIT
IWA
IKA
IHO
JJ
JPI
JTS
JAS
JTA
JAV
JPA
Jacket
Jose
Km
Kac
KBP
KAT
Lim
Labor
LEP
LINK
LNP
Lidar
MPN
MWA
Mule
Maz
Mbius
NSB
NEP
NVS
Nik
Nix
NXP
Niche
Numerical
Och
OAP
OED
OLP
OOF
OTC
Option
OSPA
Pil
PPE
PIF
PWL
Potential
Pipe
Pivot
QF
Qin
Que
QSPR
Rk
Rp
Rat
RID
Rog
Rust
Rud
RDR
RWM
Rss
Roll
Rocks
Routh
Rotated
S＋
SCAD
SBC
Sup
Sight
SISP
Sino
Seven
Tl
Tat
Tus
Tot
Trap
TMD
TLE
TEN
T22
Tok
Tanner
U1
UIM
UAP
UOF
UBR
ULBP
VAC
VIM
Vand
Vive
Vide
VXML
VND
Virus
Wp
WAM
WTL
WIRE
Wcb
XFA
ZG
ZH
Zhe
Zentral
Zachman
brow
bridge
binding
bilateral
cas
city
cAD
cPCI
cause
crawler
covers
dynam
ether
emission
eEPC
fc
fk
grow
h1
hp
i5
iris
iForest
kD
la
lot
mk
mention
mirror
nl
nil
nois
nano
outs
ocean
pap
pul
pati
pred
rotation
rTMS
sa
sent
sense
stere
ta
t0
tm
tend
tunnel
uv
uMSD
vary
wu
wit
wifi
xb
yi
##hes
##rating
##rane
##racker
##dog
##dyn
##dah
##ngine
##gest
##gene
##MOS
##MDS
##Mobile
##Split
##Solar
##PH
##Post
##Play
##BDA
##BIM
##BDR
##Bug
##RH
##RIC
##REP
##Is
##Kd
##KH
##KDD
##KAS
##F5
##FPS
##Fox
##Function
##First
##FFS2
##Fuzzer
##Opt
##Omega
##OVER
##VN
##VH
##VBA
##Value
##NLP
##uest
##upl
##uker
##ca
##cA
##c6
##cet
##car
##culation
##lt
##lou
##eS
##eated
##py
##pf
##pit
##points
##Dat
##Disk
##At
##AW
##bp
##b2
##bility
##bury
##sys
##mers
##memory
##muth
##2p
##2Q
##2se
##2DLDA
##EO
##E1
##EON
##EOR
##TIME
##Gi
##Goo
##Gauss
##Globe
##wA
##LLE
##ove
##QUI
##3P
##3G
##＋SQL
##＋LDA
##vc
##vision
##fied
##finder
##HOC
##Http
##zi
##zil
##eros
##inoc
##tiki
##etal
##etransform
##ants
##ebauer
WebLogic
WebShell
##alick
##005
##003
##entralized
##eler
##rose
##icit
##icore
##icated
##MLP
##asion
##asys
##asearch
##inge
##rit
##rian
CAQ
CAVI
##itron
##aced
##actical
##rep
Inversion
Instrument
##SPV
##stem
##studio
##api
##uty
##utton
MAIDS
##ulty
SVS
AgentSpeak
##PSB
##ocon
##aman
##ilk
##emis
##MSR
##image
##idge
##idimensional
##ogy
##ogeneration
##ACR
##ACF
##char
##aved
1020
1015
10min
10nm
10kV
10cal
10646
##igs
##igo
##igure
##ades
FPTA
##EEG
##ARI
##ARK
##OME
Prom
Proactive
Proceed
##ira
##irsch
##PIR
PSIM
ARMAX
##ticultural
##DM2
##DMRP
##OSEK
##urch
Mats
##PCON
CTN
CTMC
##osed
OpenC
OpenCAS
OpenLDA
RFD
Windows9X
##tracker
195
1950
1939
1959
1957
##unaga
##egl
##egraph
COO
COV
COT
COPP
##2048
##ova
RTPS
Matlab7
STe
STU
STORM
##obect
12000
CCSP
CCIPCA
##ithub
WSCI
Chu
##mantec
##CCH
##DPT
##ierstr
##ppers
Stable
Stone
NSDFB
##ucene
##ulties
##ODSS
153
##ffix
Spot
Sphen
Sprite
Spiral
SAGE
SAKA
SAVI
##umping
SSN
SSEA
##ensic
SimPower
SimBet
##hern
##herical
##INO
##VMC
MPlayer
Shock
Shuffled
Contrast
Extractor
Exponential
Arg
Ark
##10T
DDSP
##ubic
Acad
##isting
MSL
MSDA
##atex
SPML
SPVT
##TSR
Bey
Beer
##ofservice
301
303
RSV
RSE
##ipt
##ipro
Parikh
Cli
Flume
259
252
MRWD
DTT
##RLM
##RLB
AD6
ADXL
##IEw
MCV
MCSP
MCLT
MC55
VRGIS
ATIS
ATSP
ATME
AT90
Alz
ARMC
##anna
DCU
DCCP
DCSA
DCEL
DCHS
NPD
ACB
AC2
Delicious
GAB
GABP
##80C
DSCP
DSOM
DSLAM
ISCSI
things
CPOP
ASCA
APG
AP1000
##ATH
##ATIS
##arding
isolation
OSF
ITF
##plastic
Scal
Scatter
CMB
CMG
CMRM
complic
Complementary
Replay
MIPI
Intetnet
##olograph
stand
SUIF
CCDC
LogGP
LENS
LSL
ROAD
CBO
CBRP
##lout
NetWare
##times
DPMM
DPDP
external
##242
##antz
406
40dB
COMM
18F
Conv
Condition
##MCD
reuse
ABDHE
CDV
2426
RAKE
MD3
MDPSO
##outube
##lying
##BMR
SRU
EMCC
EMTP
spanning
2DH
2DGabor
CUT
Mint
##iking
SCOT
Neug
##DEF
##601
CGRA
##ixi
##5100
##51RD
Dirac
servers
##atives
TPB
TPD
TPG
acu
accelerated
suared
##OCR
##encryption
DEH
DECS
DRG
DRNN
DRSA
##psilon
##energy
Word2003
##resolution
chunk
TreeLSTM
miner
##tyler
EPT
##WSVM
##ives
Topics
Tophat
##eleton
neuro
##403
ICAID
TCMS
235
##OFM
##DBA
PIO
PIU
PIMS
WiMax
DLO
DLG
DLX
DLBP
##118
PHI
PHAT
PHOT
interact
##propagation
TransCAD
286
Appearance
anc
Blinn
FCR
FCNN
Geopark
orbit
##measure
PMOS
PM10
PMWL
PPTV
TMO
TM1300
usability
##IBA
INFORM
FAIR
CHC
CHORD
applic
deCast
Forstner
MOXA
354
##illar
##FDX
Voy
##area
MT88
Comet
Hui
Directshow
PBA
Reservation
Weierstr
##155
SWAP
SLI
Verifier
MMW
Smale
Lead
DiffieH
295
298
PDN
CLR
CLUSTER
Gridsim
GSD
EAID
simhash
CRO
CRISP
##Shape
AGWL
AGENT
Grun
Grant
Moose
RCSP
##warmoptimization
##criptors
##strong
TIG
RMG
Sinkhole
PLDA
##tek
BSR
TRIE
maturity
IAF
IAEA
Processes
FTO
IGM
HBT
SFDR
EJB2
mm2
GFF
GFO
IRD
relatively
GML3
RAMCloud
##oidal
GLVQ
MVA
MVT
MVVM
SCARA
##issa
##ahara
Ext3
CPNs
EFF
LMNN
FLL
Agency
Hausd
Biot
Biased
Timeout
Computerized
##ULike
MSCN
Bitt
GTV
GTSP
Trimm
HEp
AFR
AFW
AOPLID
##scheme
##908
SBML
##WABE
ADS12
BAG
C2M
C2t
SHR
SHG
SHOT
OPW
modal
VPDA
VPRN
preservation
##borne
DSSS
DSSC
Peripheral
Performer
Generating
TEG
TEAM
ARTMAP
Studio2005
ArcGISServer
selected
VTOS
ALICE
GCGA
Edg
KDG
##Proect
subdivision
phone
##aflops
REQ
left
Cyrus
alloc
SG186
LLRC
Slant
LIOP
Syntax
EDFA
LFAP
##449
FSMC
SHACAL
SpaceTwist
HC08
Iso
Manage
Cru
BCNF
Diagnosis
##235
OOV
OO4O
SYST
##55x
##5500
elastic
MicroStation
Microblaze
LWD
LWIP
PostGIS
Postdoctoral
FlowDroid
Reduced
##Scale
##Scalar
Workload
flag
Brower
Surendra
FFmpeg
EXE
Tsi
WorldWind
WorldFIP
PVO
FeO
Fruit
##flu
BLBP
BLISS
Allan
Alliance
disruption
MIDlet
Sampson
Landau
Atrous
USR
VIRT
VITA
RLWE
Grouping
##ceptual
Brent
Branch
CKD
2n＋1
GOCAD
MGCP
EHDM
CIECAM
RTSJ
visible
Gnu
TeX
prefix
IMAT
California
PROE
EdgeBox
VRPTW
Canvas
VolP
YAFFS
YAFFS2
FITS
SKP
ACME
GRASS
PARC
sniffer
snapshot
##ateration
INTE
##force
Optics
##ificance
DGPS
LaTeX
Bellare
account
RITS
experi
RGSS
grey
STAMP
VAPS
VAPP
TWR
TWD
TW28
Lambertian
Quartz
understanding
Hubb
M2DPCA
RTX51
ISSN20
ISSN16
EGT
finally
Hamiltonian
programme
CYPRESS
signed
LOO
robustness
Teredo
packets
Gluster
MSSQL
PDPTW
PXA250
##mitting
redo
Datas
Macromedia
eCFD
symmetry
Why
##ROSS
Boxes
##baum
benchmarks
SIGNAL
Unicast
AGAST
##JSSP
concrete
C8051F060
amplitude
numbers
LOFAR
unix
uniue
##affer
passive
exploit
Decisional
KDDCUP1999
ADV7
V2X
Bandelets
decisional
3502
Panel
Accreditation
##plicated
generalization
PPStream
##ectives
Karate
HiCuts
OLEDB
##auto
BRISQUE
CRSN
Duke
Knuth
WLSSVM
AnyLogic
Gradients
Zemax
CdSe
NMSF
##algorithmbasedon
crash
crucial
Impostor
MCTF
Collective
METIS
METEOR
handoff
##RBMoM
possession
addressable
KKK
swapped
GeomagicStudio
smallest
RESTfulWeb
Holter
NISO
##cany
ASAS
JN51
retinex
volatile
Heritrix
fruit
E2E
utilization
criticality
JBIG
PDTDFB
TID2013
##pportunity
TTAFDX
Chaum
accurate
MAKEP
organizations
FUZZ
Techniues
satisfy
Armstrong
deriv
##ativity
MPI＋CUDA
XDef
circle
deviation
ShareStorm
DPCS2012
STM32F103ZET6
Berle
CimatronE
CiteULike
PCIExpress
Grasshopper
Sandhu
Tcp
twin
Reports
TMS320C6711
centrality
LDMOS
##interest
##worthy
coordinate
coordinates
FLANN
CH372
Muhisim
Traectory
##blatt
Breast
##Direct
RPEM
XAML
drawing
reducer
reducing
Kaplan
SAMPA
StrongARM
Converter
Convergence
electroencephal
LexRank
Biometric
GDAL
breeding
MC683
stacked
Damage
zero
##Integr
performed
MULTI
MULTIFIT
532nm
evaluate
evaluating
penalty
ultra
HTPXI
dlCBF
sioc
reports
representative
hydrodynamics
##＋Spring＋Hibernate
##ogenous
##osystems
stationary
Thomas
433MHz
traces
Discriminative
REESSE1
Buddy
CREO
NTSC
EP2C35
Sibson
Texas
composable
NeighShrink
GOTO
Iterated
LRFU
sendmail
##boleth
maximally
TMS320VC5509A
DONet
Lifecycle
codebook
firewall
##harmonic
##OOLS
PBNDC
relaxation
Mountain
Rossler
half
kinect
Commerce
ADS7846
ALPHA
BIND
Casper
EWME
Otway
TITAN
family
horticultural
##Sketch
AT91SAM7
Householder
Pthreads
Riesz
William
debug
ensure
suitable
TRWFS
indicate
FLOTRAN
ISSN1004
dissemination
Rouge
economic
##BinaryPattern
##seuently
defines
mathematical
MAX＋PLUS
Terahertz
##＋PHP＋MySQL
Vmware
XNOR
choose
TVP51
Cambridge
SupportVectorMachine
Reducer
campus
Shibboleth
ISO15765
unity3D
Hilditch
Representational
##egotiation
Betweenness
AOTF
GERTS
WENO
DS12887
ISP1161
GJB5000A
OMAP5912
Hodgkin
STC12C5A60S2
NNSC
Tuxedo
##YaleB
##emplar
##obaiera
DS1302
AS3992
TLC2543
KLEIN
OSATE
WonGoo
##Patlak
##Reuest
##egetation
##vertisement
Bouguet
Huxley
Tuscany
Zheiang
Zentralblatt
papers
CAVIAR
Proceedings
OpenCASCADE
OpenLDAP
Sphenobaiera
complicated
Neugebauer
INFORMIX
Weierstrass
MooseFS
0S
080
1R
2t
2w
2W
2ms
3E
3PL
484
4＋2
5K
5MHz
533
5km
6D
614
8K
8b
8255
9X
920
A9
AVM
AEP
ANR
BZ
Bash
BSB
BRS
BBM
BNR
BND
BASE
C＋
CoC
Caus
C16
Coch
C6000
Covering
Category
Citespace
Dh
Dl
Don
Dor
Ding
Dass
DHS
DSMA
DACS
Dango
ERI
EVD
Embed
FES
FNA
FUS
FOC
FWM
FRE
FHA
Fied
Ftp
FCPM
Fellow
Fulk
FKCN
Gf
Gord
GDD
GLP
Gated
GKS
Glowworm
Hr
Hap
HFT
HVM
HRM
Hex
HGS
Hull
HMAX
Hspice
Hunter
Il
I3
IZ
IID
IOM
IRB
ILC
IAS
IOP
ION
IEF
IXA
JG
Jud
Jain
JESS
Jouss
Kl
Kb
KLA
Kam
K20
Kave
Kuber
Lou
LEM
LLM
Lower
LOC
LHA
LIL
LNMF
Lily
Liao
Little
Lifting
M＋
MZ
Mif
May
MQL
Mie
Male
MLT
Nt
NOS
NGP
NWS
NFD
Nok
NLSR
OAC
OMM
OIM
Opp
OHT
OEF
P5
Pap
PGS
POT
PISA
PFTS
Ponder
QEP
QDR
R4
Rf
RPI
RVC
RVD
RGM
RAND
Raw
Roth
Rtree
See
S12
Senti
Skitter
Td
Tg
Ty
TDF
Tob
Tib
TIR
THA
TLT
THS
Tube
TUX
Tuple
TNAF
Taint
U＋
UCT
UCC
URM
UUT
VDA
VDD
Via
VDB
VPA
Vlog
Vtools
W1
Ws
WIM
WDL
Wear
WIT
Wong
WKS
Wifi
Wavelength
XK
Xml
Yi
YW
Yen
YCH
Youn
ZM
ZA
ZY
Zoo
age
b1
bf
bic
beg
blob
browser
cd
cP
cw
cach
category
courses
dark
done
dRBAC
duration
ev
eMMC
epsilon
fa
fB
f1
fm
ff
fish
fuse
frog
fused
fipp
house
held
hellman
i7
io
kS
ld
lift
liter
lifting
languages
mig
mex
mover
motor
np
nar
n＋2
nested
nesC
nonself
ok
otsu
pot
press
p＋1
pignistic
r2
rider
s0
sine
sift
tre
til
ur
ui
uIP
ups
vc
vor
vSphere
vgather
wx
wal
wind
wleb
wareh
wavelength
zip
##http
##aM
##aics
##rs
##dk
##dual
##device
##ivers
##iencies
##n2
##gard
##gular
##MG
##MDA
##Mig
##SN
##SOM
##See
##Soft
##Source
##Spect
##PG
##Pet
##Pipe
##B6
##BFT
##BER
##BTF
##Ret
##RES
##RIP
##R14
##KV
##KAP
##KISR
##Cad
##CLE
##Cons
##Chop
##C31
##OX
##Ont
##VMP
##Vue
##NTP
##uate
##correlated
##kN
##kes
##koning
##lx
##lass
##luster
##loud
##power
##tures
##tables
##Dec
##DEL
##ADS
##bc
##bis
##bles
##bling
##si
##764
##750
##520
##mechanism
##9126
##4D
##450
##425
##2B
##280
##215
##TY
##Tap
##TSA
##TFS
##Turbo
##GH
##GRA
##GWO
##G08
##U2
##UNG
##wIP
##write
##whart
##yan
##yles
##ymmetric
##6A
##LUS
##Live
##Load
##oke
##YO
##War
##QV
##Q3
##3M
##Xpress
##＋b
##＋L
##＋J
##＋XML
##＋Open
##＋Linux
##8B
##813
##Job
##viz
##virt
##xn
##x4
##HW
##Hop
##zsys
##ertia
##enh
##enes
##enner
##onau
##eback
##ebench
Webmin
##arc
##arser
##entz
##elius
##rocess
##rogen
##ingo
##rium
CARE
CALL
CAUPS
##isation
##econ
##itate
IPSAN
##reich
##CAA
##CACS
InP
Instance
##heimer
MAV
MAs
MAL
MAMC
MAIL
SVA
20030
##PSL
##ocular
##outi
##DAE
##odic
##MSVD
##imeter
##ervasive
##idance
##agle
##agnetic
##ogh
##ACROSS
##netes
CADD
CADE
PCE
PCCA
Interchange
Interoper
##aves
##avity
10GB
1050
10cm
##igan
##adex
##adaptive
##SST
##ETR
SIW
SINET
inertial
3DMM
3Dmax
##OMIN
Programm
##CTR
##PING
PSOS
ARV
##CMAR
##DMM
Serve
##OSD
##OSL
##uracy
Matting
##otec
##PCNN
##osim
##osyn
OpenM
OpenOffice
RFA
WindowsAPI
193
1954
1963
##unes
##unfold
##DSE
##egler
COG
COSA
##2022
##ESD
proects
SOH
RBMC
RTSS
##NASS
##NALG
STG
STAN
STRU
STREAM
##obi
12dB
CCK
CCCP
CCRD
UML1
UMLsec
11w
MATAL
WSCP
Christ
Choi
##NSN
##STL
Sta
Stad
Style
##eller
##ellar
##ellis
MapGuide
SDSA
SDcut
##iza
Splay
Spatio
Sports
##EMU
SACA
SAIR
##umor
##RFC
##RFs
SSID
onto
##ERN
##ensel
##formatics
##LC84
means＋＋
MPF
Ship
CSocket
##ibu
Contr01
Exata
Exclusion
External
ExSpect
##APH
##rahed
8098
Acceler
##istribution
MSV
MSU
MSDL
SPB
SPFA
SPGD
##axy
##ofService
305
30Hz
RSView
1001
##ASK
##ASIC
##ipulation
Parser
algo
almost
Clou
Float
252C
MRED
50dB
##gory
ADG
ADRS
AD77
JPEGXR
SMCS
SMDP
IDMSVD
Also
Always
ARM＋FPGA
##thest
ACH
##ECN
GAT
GABC
##GLM
ASiR
APAS
AP224
##seuence
OSRM
SNCD
SNOW
ITTC
Scud
Scratch
CMOL
CMCR
compress
compati
Compression
Compared
Reiter
Intro
Integrity
Hashtag
shader
shuffled
##321
213
DABC
Solar
SystemVerilog
ICET
CBB
CBI
##RTL
328
NetSolve
DPO
UGS
excel
exception
extractor
excell
##ONET
##ONIX
##249
405
402
40mm
Concert
Contiki
##508
admission
reID
refinement
##eye
PROT
##uda
##NetS
KNNS
KNNIG
CDI
CDU
CDKF
website
NUA
247
243
encod
enabled
##tten
##aintext
EMO
EMW
##ernment
1750
spi
spin
2DN
CUM
CUFFT
Minority
MinMax
SnO2
LabVIEw
##60A
contact
continu
##30F
LabVIEW8
CGSA
restric
acceler
TFM
multibox
TSW
DMZ
DMSP
Harvest
Haralick
##ferences
Coif
chine
chaotic
EP93
##WSC
##WSDL
WinZ
SNMP＋＋
SNMPv1
##405
ICAO
##clat
##ORO
##1600
231
234
2300
##ributing
MBNC
arkov
AUP
##eatur
##uilib
PIX
parity
paradigm
Quant
PHA
PHG
interle
intersection
MEG
##produc
646
64KB
703
2800
Place
another
NT4
NTT
ork
MFM
MFAC
MFOA
Access2003
##ousing
PMHT
PPV
##short
##sharp
logarithm
INV
processed
processors
MOL
distingu
359
##RII
275
##134
MTBF
MTTF
Come
Comon
Hugh
CIOS
CIFS
CESS
##ronics
PBNM
GB180
Controls
IMV
BIG
BIRT
##1581
LapR
SWMM
MASIF
MASHUP
##miner
Veri
MM2
MMAC
MMTD
##ybox
PAB
PAG
296
PDK
PDW
ISO27
ISO13584
ISO17799
CLIR
CLUE
TVD
GSF
GSN
GSVM
##195
CRIT
Carry
Carsim
Deuts
Dephi
Dependent
Dealer
##ricia
##riculture
TDSP
unstructured
QRD
Schwart
Grbner
Grubbs
MLlib
RCB
##yping
AVIDM
##BAD
##802D
##State
Recorder
Graphs
LAUC
SIMT
PLF
TRANS
BMU
BMW
matrices
PTG
PTAS
3100
C4KISR
FTSA
Arnoldcat
PFair
SFLASH
##999
EJB3
FMCS
##span
Unikernel
HMIP
L298
##dorf
MAXIM
MAXFP
GLUE
##Simu
HAB
Mete
NewReno
ISP1581
Induced
Indoor
LMDA
LMDS
FLMS
GEner
UCR
BiCR
##rometer
Curvature
MSCOCO
GTST
Trigger
Triggered
HEX
EROS
Relax
Collaboration
##Inc
BFR
##eutic
SPEB
Polarity
##scill
##scribe
##906
SBT
NIKE
GROM
LPV
NLEMD
SHE
##10000
OPB
IFI
FDEP
FDIR
##841
BRAS
BRICK
Create
##UTH
EDIF
GNOME
HIBC
ORCA
EBI
EBoot
##IMAX
DSST
Perfect
TEXT
LCR
NBT
NGGPS
Studio2010
graphical
DICE
VSL
ASME
##988
JSD
JSCC
THD
GC1
ext2
ext3
extent
383
Regressive
RNAi
Kerck
coif
##331
KDDA
##iBroker
PULSE
1974
RRIS
UPDATE
1501
DOACROSS
UMN
UMAC
DBNs
Shewhart
atoms
directory
Hesse
SMSS
Pyramid
Link16
DINA
CRC32
ISATAP
GibbsCAM
006
ODSS
researches
Gregory
##ampler
4300
POOSL
394
FOB
FOXP
HCCA
Isight
Lorentz
Selenium
NEON
BCO
Diversity
OLDA
realizing
SYNA
OSGI
Descent
IVPA
Watermark
flows
flue
Universum
randomized
Electrical
LANMAR
LINQ
SPARDL
GDISD
WorldView
Brovey
576
##linois
disoint
dispers
Anycasting
RDSS
667
Photo
AT89C55
Landmark
wirelesssensor
ROCK
Attestation
MHR
poll
policies
Toolkit4
McA
worker
##IWPSO
Texture
IPCNN
##uitous
Facility
Assistant
521
ROMP
POSHE
HOOPN
linking
CCMT
##enberger
##567
Blockset
school
##949
GlobusToolkit
paths
itself
indexed
Tek
Naor
Testbench
SPADE
##Energy
##Encoder
PROXY
groups
grouping
triangle
##conf
YAG
Groves
MWC
##6140
Monads
Monotonic
##Gen2
AWE
AWGR
SDLC
United
Cuixi
Barr
temp
SimpleScalar
MeV
IDEF1X
MK60
Win32API
##caps
Cuboid
ICSL
MICR
CNCC2010
Eulerian
##BIRCH
Laur
LaNi
Starbus
genetics
ICCG
WienerChop
centroid
3dsmax
3dsMAX
##casting
regional
Amdah
microsc
Genn
KPCM
Clarke
domains
OPENMP
bias
##tils
Special
AIMRP
AIMNET
Big6
BigData
Timing
##robe
Glue
CGAN
Longest
Petrinet
uCOS
movement
##ydra
IEC61375
Denning
EOQ
connect
S3C4480
##VLX
infected
SAEJ
Raman
##Logix
Patricia
##goal
curves
SLMCM
heav
conceptual
EMC2
collective
LHL
Lua
cutting
events
MADIDS
TCSTS
freuently
Revocation
##ficker
MDLP
tions
Fitts
Summary
##coln
Emotion
LAMBDA
##iods
Avoid
Cernet
Goldreich
RoQ
VOC2012
VOC2007
bootloader
ODMG
PCF85
STRIDE
Combination
GWAS
items
facility
magnet
Pairing
se2se
Anylogic
Anywhere
CWMT
Queueing
bugs
denoising
GGH
##Computer
expand
boxes
authorization
MPC8260
soil
##ylene
hyperlink
Erics
RQP
STSR
ULLS
PoCTL
##reatment
German
##Hashing
##tism
IntraWeb
LDCQ
LDCRF
Codec
Savitz
popularity
transactions
##apsody
actions
OAS2
OASL
reconstruct
reconfigurable
LPC2292
switched
continuously
ESTC
Histograms
##＋MathML
specifications
Arithmetic
pairwise
fragment
Plugin
BatchRSA
Raid
Glove
OsBTF
##ueued
RKHS
Neuro
Needleman
Stirling
CLONALG
Student
FSAE
MLDC
##centage
AMCB
Rhapsody
affecting
customized
win32
sciences
XORP
harmonic
harmony
DPCS2011
750kV
TXOP
VCSEL
##XXX
CISCO
Graf
KdV
keystone
CLPKC
IACL
occur
british
##TiO3
InteSolid
difficulties
steam
Marginal
SwiftDB
MC9S12X
aspx
MIDP2
##Super
##Processing
Focus＋
Irregular
workshop
Expand
##istorical
diagrams
Borw
JDK1
Susan
CTCIS
COBRA
abstraction
MOPs
cubes
genomics
Pauli
Paulson
TDLMS
drawings
tcp
EP1K
Annotation
reduces
PocketPC
Predictive
##String
##Guess
Beni
Restful
##otient
##otide
GAMBIT
OIAP
RODOS
divide
##3N4
CALIS
COREX
Widget
GTK＋
BWTSP
ColdFusion
Hodge
NDMP
X264
Redundant
##umbia
MBF200
Eualization
Tukey
##SHARC
Feldkamp
casting
##Slice
BMSH
Taran
evolving
simplified
HEUBR
LATE
##16L1
Tempura
Sibelius
Ziegler
malicious
innerwrap
Stationary
TMS320DM6446
validity
Heartbeat
NLTV
TigerSHARC
Sharer
DFRFT
Friedman
386EX
Fanuc
UDMGrid
GPoCTL
relaxed
emergency
Rabbit2000
analyses
FFMPEG
Rodin
CUHK03
Dryad
GLONASS
IWFIM
Ulrich
credit
messaging
conclusions
HPV16L1
Darwin
DVMRP
Hibemate
HCL2000
MMMCS
tabu
SAMSUNG
Stratasys
GROUP
Telecommunication
Dendritic
Massey
Nimda
macro
outerwrap
##aurus
##ibilistic
prefetching
MuhiGen
Hydraulics
Foundry
UIStyler
Proximity
SMNDP
determine
Subscriber
Kumar
Mexican
Nayak
NRF24
overview
##SurE
##Diffie
##front
##ogeography
CenSurE
Dinic
Hordes
James
WHIRL
Leon2
DIAMETER
NESSIE
concentration
skills
BvN
Falcon
Measuring
Oragent
Rainbow
UBIFS
benefit
tissue
zgzsys
##Developer
Committee
MAX7219
IMAGINE
towards
Jsteg
Kennedy
AVISPA
TAPI3
Tsinghua
TelosB
Bundle
Concordia
Munsell
Cortona
Escher
Guillou
IKAnalyzer
JPIPT
Joseph
varying
Alzheimer
##51RD2
Voyager
DiffieHellman
CIECAM02
GlusterFS
FUZZY
Berlekamp
Fiedler
Gordon
Kaveh
Kubernetes
Nokia
VtoolsD
MATALB
252Cf
Concerto
EP9315
Schwartz
Kerckhoff
Amdahl
Savitzky
OsBTF3
zgzsysk
0bect
017
046
1k
1E
1atent
1cm
2i
2cm
2TB
3a
3X
351
315
3COM
4T
4＋
424
4ms
417
4over
4190
5S
525
690
696
7200
716
812
811
8ms
828
910
940
916
A0
AMA
ACAD
A320
ASTM
AIDE
Aven
Ayd
ADFA
AoP
Bh
BNS
BVM
BLM
Blo
BDT
BFP
BDPCA
Bose
BNP
Bany
Cx
Cle
Cow
Cash
CNA
CRU
Cyc
CWA
Cep
Cert
CMAS
CELP
Cifar
DSTM
DGD
DKP
Dunn
Dolph
Dantz
E3
EJ
Ech
EEE
EIC
EHT
EoC
EGP
ELT
EBA
EUV
EWF
Every
F6
Fang
FCI
FBO
Finding
Fully
GY
Gom
GET
Godel
Gean
GFM
GCE
GVD
GLOB
Growing
GINI
GJK
GmbH
GWABE
Hans
HOD
HBP
Hass
Hold
HBM
HHA
Hide
Hyb
HCE
Hete
Higher
Iol
I2P
INA
ILD
IIF
IOR
Identif
JAR
Jak
JBO
Jaya
Ken
KPS
Kil
Kine
KPN
KMA
KDB
K＋1
KGE
LEE
LFT
Lear
LMF
Lup
LaS
LCH
LHD
Living
Lissa
Mw
Mis
Mux
Mot
MCAD
Mult
MMPP
Maker
NLA
NPI
NPN
Nob
NEM
NGB
Niel
NIO
NVF
Ngu
Nested
NIB2DPCA
O3
OX
Oil
ODA
OET
OLC
ORS
OMC
OTA
OTM
OCF
ORD
Ogg
Oct
ODAM
Put
Pig
Pont
Peng
PWP
PMAP
QMA
QTA
QBD
QOE
Q0s
Quilting
Qwt
Rav
RPP
Rib
RIE
Race
RRA
RCL
RDH
RNM
Sd
Spen
Sher
Soot
Stern
SHS
SISR
Saf
SACS
SELP
Sanger
SFPA
T8
TED
TDE
Tong
Tau
Tao
TUM
TNM
Uc
UMI
UFL
Ven
Vent
Vec
Vit
VCA
VID
VEE
VSB
VTP
VAV
VAD
Vuf
Variance
WAR
WCT
WPP
WED
WCL
WBA
WISP
WoT
WNMF
Wizard
Xr
X1
X3
XJ
XCS
X10
XTM
XDR
XUP
YP
York
Yeast
Youtube
Z2
a0
ation
bo
bpp
bip
bian
bud
cA
cage
cold
cases
coupling
day
deg
dme
ei
ef
five
foll
few
fMSC
gel
gall
gSpan
hierarch
holograph
iPS
i386
ks
kJ
kri
kbit
li
lens
launch
mt
mel
multic
mental
music
n5
ny
nan
national
opp
pF
pool
pump
puzzle
palm
painting
ra
rice
rates
sem
seg
syb
sound
ssc
ted
trol
tau
trem
vice
virus
vSwitch
wn
wet
want
ware
width
x0
xD
xDSL
yet
zoom
##hand
##hof
##haw
##hina
##aL
##rP
##rf
##race
##rence
##rature
##design
##draw
##iT
##nu
##nooping
##ga
##gis
##gate
##gia
##gery
##gres
##gaining
##Mos
##SV
##SAC
##Sum
##Sign
##SIFT
##Pre
##PDA
##Petri
##PACK
##Ba
##B1
##BX
##BRS
##Ball
##BII
##Bregman
##BPEL
##RCA
##IER
##Fo
##F67
##CX
##Cam
##Op
##ORA
##OLAP
##Oriented
##OOK
##V4
##VMM
##NO
##uen
##uar
##uator
##cor
##cing
##cle
##come
##cope
##lS
##lon
##lis
##lice
##lers
##liance
##eal
##1R
##pc
##peg
##packet
##tk
##tler
##DQ
##DCS
##Device
##Decomposition
##Down
##Def
##Aff
##sand
##sper
##760
##5T
##mA
##men
##mem
##mple
##marsat
##980
##912
##932
##4P
##4K
##2H
##216
##2nm
##TQ
##TAM
##Gr
##GSP
##GFI
##Generation
##UDA
##Uni
##URE
##wig
##walk
##yer
##yen
##yad
##L1
##WIN
##Wall
##Wide
##Qn
##3s
##3CM
##351
##X4
##＋r
##＋c
##8168
##82C250
##JC
##JL
##vine
##vola
##fn
##fan
##first
##fsc
##framework
##factor
##farb
##Hg
##HDF
##Hierarchy
##HOIQ
##zes
##error
##eriod
##inar
##onitor
##ett
Webs
WebL
WebWork
WebAccess
##alyst
##alization
##ede
##ele
##eling
##elink
##elme
##rox
##roff
##atories
##icc
##icle
CACC
CARS
CABAC
##ising
##itab
##terior
IPL
IPID
IPMC
##acu
##acher
##acency
##CARP
Instant
Inmarsat
##sth
##stro
##olor
##olsky
XMLHTTP
##aphor
##omal
##omatic
##oments
##utt
MAO
MADM
MAST
MAFS
MAGE
##ulin
SVPN
200MW
##amic
##amak
##ametric
##ila
##ilience
##PUG
##agin
##agation
##CPSP
##CPLD
##ogic
PCs
PCH
PCMA
##ectories
Intersection
Intermediate
##using
SVMR
10bit
10MHz
BPMS
##adoop
##SSH
FPF
##essus
##EEN
SIA
SIQ
SICP
ine
inclusion
instant
infinite
3DSPEC
Lincoln
Prod
Prop
Propos
Problems
##irect
Adversarial
PSN
ARR
ARPA
##ticulation
##CMM
##CMR
##ota
CTG
##osis
##osophy
##LSF
OpenH
OpenNI
RFQ
##lable
##truct
##tracking
191
1969
##SMP
##SMC
COFI
##ESE
programm
proxim
SODM
SOFL
##MPLS
##ovo
##SBS
RTDB
RTDBS
STX
STLS
STEM
STRA
STIX
##obective
##obects
##inking
CCE
##ither
1111
MATCOM
WSO
WSEM
Chow
Chak
Child
##management
MATLAB7
##DP512
##NSE
##STrust
##evolution
IPv6over
Story
StAX
NSMS
##ucose
##andem
##BSE
SDBA
15mm
15dB
Spro
Spike
Spaces
SASM
SAFE
SAmple
SSi
SSX
SSML
SSSP
166
##enson
PCA82C250
AutoR
##VMs
MPGA
Shim
Shann
USBN
CSW
CS54
CSIFT
ExG
ExOR
Arr
##EDO
##EDCA
##10m
##10646
DDNS
805
Academic
MSG
MSCA
MSDP
SPAC
SPPC
SPMC
SPOC
SP95
##eston
##RSE
##allow
RSVM
100100
100Mb
AutoCAD2006
Paris
Parad
Parity
along
Claus
Cloth
Flo
Flip
MRGP
MCCA
MC33
SMG
SMES
IDB
ATF
ATG
Al3
Alloy
ARM＋
##ments
DCCA
DCFS
DCLC
##BCR
##BCF
##thes
ACEA
Delph
Deluge
GAV
GAA
GAHP
ServerScope
DSU
DSVM
DSRT
ISCA
Multiagent
CPB
CPTI
ASAR
ASCS
APO
APID
OSH
OSELM
SNTP
ITSM
13dB
##player
##plane
Sca
Scanner
PKM
CMEX
Rey
Reactive
Reputation
Reeves
Repository
MIAS
MILD
Intention
Intouch
##oriented
Eng
Enter
Marker
HashMap
##CIF
SUM
SUP
SUPER
219
214
DAFS
DALI
ICPSO
##phorus
GPPSB
CBWH
##RTM
##RTrust
##LPQ
1483
ANSIC
DPs
DPG
DPTM
DPV1
DVP
exclusive
##247
401
403
40Gb
COMID
181
184
Cone
##HPGA
rein
ABT
PRML
PRMA
PROG
##ribon
CDdual
##NCH
##TLB
249
242
RAA
RAGA
RADS
RAODV
MDG
MDVRP
encrypted
click
##icals
##lymp
##lywood
SROCC
SRUKF
EM4
EMIS
EMMS
173
spark
##EBT
##EBOK
2DR
Minitab
##ikonal
SCB
SCBF
SCNNC
##UILDER
Nehal
##DEV
##arta
NCO
##rism
Oracle10
CGT
##516
Unlink
##entiation
TFN
TFDS
TFFS
multiplier
Struck
##encil
come
DMPSO
DMTF
Harmony
ECCA
222
226
Wordnet
CoL
Coarse
chop
DFF
EPD
EPDM
EP3C
##ivity
IDSQ
269
##akis
##GSC
##class
##cluster
##closing
TC4
##1616
237
SPIE
##Boosting
##chitec
MB2
MB90
AMPS
AMBE
MVC2
RPF
DLDP
##DROID
particles
Quine
Quagg
Trin
Trad
Truck
PHPC
intermediate
##DCH
##programming
##profile
intensive
ArcXML
Goertz
anis
anim
Blend
##DIO
Ask
Async
Asmuth
FCSP
FCMS
FCRM
GeoC
Geforce
NTree
##oxy
##HAL
PMGP
PPD
##FMT
logo
FAB
FAF
FAE
FAIMS
ESF
ESE
MAPLE
CHF
CHES
deform
deposition
MOE
##illus
VHS
272
273
##137
##136
##1341
OFGA
##uncation
HOG＋SVM
FSI
FSHOIQ
Hahn
SEF
CEN
CEDA
LTB
PBDM
GBVS
GBuilder
GB17
Resin
Weh
Weis
VxW
IMB
IMAN
##157
Lapadula
SWI
SWEBOK
##CLONE
Modern
Modicon
SLEE
LBD
4500
Montec
##rinets
PA6
PACA
PAAG
294
GSE
discret
discover
##1998
CRDT
NDO
TDO
union
LDOF
AGR
AGCT
Scholes
##702
MLESAC
RCBAC
##PAQ
plot
platoon
Struts＋Spring＋Hibernate
thispaper
trellis
##187
##Stand
LSSVC
OGE
LAA
NAIVE
Lytro
SIM900
FastC
DOMDG
HPLC
HP2PL
BSL
BMG
BMIM
mature
IAA
IAPSO
Distribute
PTX
OADM
NNI
Camer
MobileNet
FT64
FTTH
FT245
IGE
IGCT
HBF
SFSA
SFPN
SFFS
Liunx
PCBN
FMU
GFR
GFCC
HMB
5100
##OLL
Roboc
ICPC
MAXScript
Filtered
GLRAM
EECS
EEOD
EECTS
MVFAST
HAAR
##issance
948
Boosted
EFIS
EFIT
EFDR
LMCM
LM3S
##223
FLSPT
TASM
TAGS
TACACS
UCX
UCGUI
BiDAF
BiCMOS
Biharmonic
VMO
VMIMO
IEC60
OBL
DWarn
Preference
TBL
HEr
HEMP
HECC
Colpit
Columbia
##score
##scious
SBDD
NIRS
NIQE
PND
PNL
GRN
GREC
##maximization
ADS78
MyE
SHOQ
##100K
modules
modulo
MNB
IFML
IFPUG
##berger
2DPCA＋2
diffraction
VPX
EDO
EDU
IOV
IOU
IOWA
EBR
EBO
SQT
TTF
##WBR
DTNs
LCK
LCoS
##hority
WTRP
ArcGISEngine
TMS320C31
TMS320C6678
WAP2
outlines
selecting
VTree
JSSP
JSVM
GCB
GCN
GCPS
extens
extremal
Ord
Registry
Detect
LMSE
Keras
coal
coherent
coherence
##Problem
##Profile
php
photo
phases
pharmac
LRV
KLPP
leaping
379
RRDB
desktop
LLTS
150mm
DOWN
RMSD
RMSEP
WFG
WFPN
WFST
WFLICM
##wei
##weighted
Dom0
##CV8
SMSC
DIV
DITA
OTE
Randomized
HRCT
LPCCA
ELSA
##448
mediods
WCN
WCRT
POE
assurance
SpaceOS
Crust
MQAM
NEXT
NEPCON
BCB
OLI
OLG
SYM
CSSA
CSS3
Desire
elimin
PostScript
MITK
COST
Working
Hyperlink
NO2
Survey
Surpac
FFr
FFSP
##ountain
STKOS
delaunay
GDOI
##flops
repres
##ushing
WINCC
##lined
##lination
Abadi
AISG
Piella
Subgoal
NVH
Highest
473
Firstly
formed
ISSE
Attributes
integrate
StreamCube
TiC
USC
USDP
Pathload
##ommender
74HC
Symantec
BNM
Distra
Disruption
RLV
##6675
Infrared
##MapReduce
Freeze
##TREE
Brand
Brands
meshes
SmartB
SmartC
CIMT
MGU
##TION
EHR
##56F
schedul
NaI
NaOH
prewitt
reuire
HFB
##inesnap
DSAG
DSADL
ADLM
Multisim2001
##HEET
FBT
##GRID
Guarant
Indexing
Grove
Inside
800600
FIFS
SKY
ACMC
Crossover
probe
##Check
##274
FLUX
Barzil
TPSS
CTSK
seuences
OutGuess
Mei
variety
variables
MPSA
lowest
Answering
INSIGN
ACSM
geography
geographical
##ursion
StarCCM
FGN
surviv
CISL
RGV
MIND
MIPv4
JMeter
VASS
microb
microscopy
##EEDY
GSPM
0731
Events
GenBank
Considering
Horizon
synthesis
underst
slices
logistics
LotusDom
markov
biom
biological
NodeRank
MathEdit
Halstead
CYCLONE
capture
Shapelets
Times
ECDIS
offline
Variational
##services
DARPA99
DARPA1999
Blackman
Glitch
Glucose
MSSQLServer
OVH
OVAL
CryptoM
Datac
Longley
eCognition
opinion
MOEAs
loading
streams
Pushover
PATRIC
##Express
cykk
Shapefile
ADSP2
##structor
Fireworks
SIGHAN
providing
CSGT
BUMP
Gaia
NFVNTP
MSAE
Truetime
WINS
Checkmark
blendshape
Malware
explicit
advances
Handoff
boundaries
##Conference
DMSO
LCSM
ADV212
CDF9
eXo
TMS320F2812DSP
ALCIQ
FEI
FGSIM
S3CA
Summar
verilog
Accuracy
superior
Emulator
Welsh
Cereb
RVLC
db6
Karush
##5409
NWD
BPAF
aggl
seam
frameworks
productivity
DCNNs
EasyEnsemble
however
DQN
HotSpot
portlet
exponent
##tized
MSRA10K
hypertext
Advice
Advance
Advances
handling
labeled
PoI
PoW
PGAQ
needed
Endpoint
KingView
OWDP
OWCD
apriori
FusionCache
MARMA
chaining
Symbol
Ring0
IWD
##Adaptive
weighting
DyTrust
sorted
OAS1
meeting
##Workbench
SPLPP
Effects
dependability
Hartmann
Jackson
Nuclear
Protel99
CESN
GTSRB
SOCKSv5
STC89C58
IMPACT
namely
DMFD
TLC56
##Transport
define
Old
Sorting
##MTMC
LETOR
LASER
Tanimoto
merging
##emptive
Sinc
Thermo
move
splitting
##C552
polymer
Rhinoc
normalization
customization
derived
DAQmx
CBTSP
AD7705
Frontpage
Pmfix
correction
Berlin
created
keys
lookahead
##parent
enhancing
parametric
ARINC659
Oxide
thermal
wideband
Continuously
steps
CameraLink
DMMA
LAPACK
impact
executing
executable
department
FSTA
ADFs
TFDs
MORLC
NIPL
Penrose
RNGk
Annual
investigation
investigate
Smoothed
AXI4
Mosaic
##tecode
considered
British
DMLD
fiber
payload
revocation
Michigan
EPF10K10
avoidance
Pressure
covered
candidates
adusting
Triangular
Triangulated
ClearCase
Damgard
IIMIS
lbn
replacement
answering
summarizes
IoV
##Colony
##ospital
precondition
Feret
KDDCup1999
Singleton
TIADC
bigram
interpret
interpolation
subscription
SOLIDWORKS
adaptability
Cobol
FLOSS
Faug
WICN
##X110T
Artemis
activities
Nichols
##Desk
##Thread
calculate
POLY
measuring
1080P
Excite
architectures
Extensions
Iteration
iterated
TC35i
Cartesian
granularity
extracted
Animator
PETS2009
HXD
MYC
NCTCS
PEDOT
Xtrem
halo
honeypot
locking
##description
IPoverDVB
Interpreter
Reflection
IEEE1451
Commercial
AAL5
emphas
emphasis
H5N1
easily
WebGis
##rigrin
##omorphic
Steghide
completely
shrinking
therapeutic
NEDC
Permission
Satisfaction
Watchdog
seeds
##eclustering
MCVSVMs
ASENET
GPAKE
Capsule
correctness
AATCC
CINRAD
Football
Rastrigrin
crosspoint
20Newsgroups
ARIES
BWDSP100
Available
Bacillus
BizTalk
Lipton
Orient
##Handle
ARFIMA
Simplified
facilitate
Because
EOPMs
IgG
Juniper
Mockup
##MHZ
RBPNN
BlazeDS
Georgia
VTARMA
SetPacking
P87LPC764
Gestalt
belong
crowd
happens
kerberos
vxWorks
RTRSM
OFBiz
Dependency
determined
89S52
##NeuralNetwork
Keysight
UNICODE
Benders
Frontiers
Tessellation
YHSIM
Alamouti
Multipole
##RTHOMIN
MinwiseHash
Plotkin
GoogleMaps
NOVELL
Cirrus
Kasami
Luby
Sauvola
ZEUS
ZLG72
AD7656
stakeholder
TP391
plaue
FKAOS
mentioned
##KdV
Academy
ARMCortex
##plastics
deCastelau
Bittorrent
DukeMTMC
Fulkerson
Jousselme
Mifare
Malek
fBm
walsh
ISO27001
Deutsch
LaNi5
Gennaro
SAEJ1939
Ericsson
britishplastics
Focus＋Context
Borwein
4over6
Avenue
Banyan
Dantzig
Geant
Iolus
Lissaous
Vuforia
XrML
bianibu
follows
3DSPECK
Nehalem
Quagga
Goertzel
GB17859
Colpitts
2DPCA＋2DLDA
Barzilai
INSIGNIA
LotusDomino
PATRICIA
Rhinoceros
0r
0RL
060
030
0mm
011
033
035
0201
1g
1p
1GB
1nm
1inear
2V
2nm
2GHz
2Gbps
3N
3U
3PC
316
3He
3rd
4GB
4＋1
5A
511
515
518
5nm
528
6B
624
652
698
7C
7s
712
711
8S
8x
835
8192
Ait
AEE
Aeg
A＋＋
AAP
AUI
AIB
AKM
Awareness
Bc
Bap
BDF
BNA
Bzier
BFC
Bode
BIF
Biv
BDR
BBA
BFA
BDFS
BWA
BGC
Boch
Babel
BQS
BING
C9
Ces
Cit
Cot
Cpp
CHA
C18
CIST
CKS
CWF
Cannon
Cognition
Coupling
Cachin
Cilk
DWL
Dmax
Dose
Dedup
Dicer
E7
Est
EIM
ERF
Eber
EFC
EIF
Eros
EKS
Even
EASE
ETPM
EREW
ELPA
Fo
FZ
Fv
FML
Fas
Fam
Fur
FRF
FRM
FRC
Frid
FEB
Freg
FFF
FKNN
Fund
FUSE
Ges
Gop
GOM
GES
GED
Grap
GIA
GWT
GDT
GOF
GKA
GVT
GHI
Github
Hm
H＋
Hin
Hem
Hog
HPE
HES
HLC
HAP
HCl
Hanning
Homography
Hiding
HDMI
Hint
HTPR
HDSL
H323
IRA
IVP
IACO
Illum
JK
JV
Ju
JW
Jin
Jon
Jar
JRS
Jik
JBI
JLU
Jiang
K0
Kw
Kor
KCC
KIC
KAP
Kra
Kris
KDT
Kerm
KCl
Kaw
Keeper
L5
Lar
Lad
Los
Lys
LAV
LRE
LIDS
LAND
Learn
Latex
Md
Mk
M5
MoS
Msc
MGE
MEMD
Making
Mechanics
N4
Nem
NES
NIM
NIN
NLC
Nest
NIE
NON
NTC
Nlog
Nuss
N＋V
NFTM
Ninf
Nessus
ONN
OSB
OPP
OIC
OFS
OBC
OCD
OGS
OUT
Oculus
Pk
Px
PCAD
PPSO
Pia
PNR
Poh
Pegas
Pooling
Panda
Pumping
QO
QTP
QIA
QAT
QMF
Qkn
Qfn
QCIF
Ry
R6
RRF
RPSO
RLD
RGP
Rout
RNF
RKNN
Ss
Sock
SKF
SWL
Sak
S2S
SCPN
S08
Success
S57
Situation
Sustain
Supervisory
Tn
T7
T5
Tx
Tec
TPE
TRF
TFS
T＋＋
TGIS
TVC
TMF
Tower
Tenc
TGrid
Tuned
Ua
UDL
UTP
UVM
UDD
UNet
UPA
Vr
Vb
Vs
VPP
VIC
VAT
VEA
VIF
Vers
VGS
VTC
VII
Variant
VGI
VINT
VDPM
Vocabulary
Wm
Wan
WOS
WMM
WRS
WGL
WMC
Wey
WDB
WCH
Where
W78
WHO
WISA
WEEE
XSP
XRF
Xue
X50
XDE
Xuan
X250
XIDM
XISS
Xmesh
YS
Y1
Y2
Yuan
Yoon
ZK
ZJ
ZCR
ZEMA
ace
audio
amb
ber
bill
bench
buy
c4
cou
coin
chem
clear
covering
don
dam
dip
dex
doop
door
deeply
ee
eth
eclipse
fx
func
fractal
glob
guard
gbest
hN
ham
hole
heart
hkx
hello
htm
historical
i1
iz
ios
ity
iCAM
iNAS
illum
iDEN
kt
kb
k＋
kmax
knn
lem
lig
liu
ming
mun
mand
mial
mote
mushroom
museum
nr
nR
nN
num
nate
nlog2
oc
option
pg
pt
por
penet
pivot
r1
rf
rig
rot
rang
rout
rx2600
sA
sT
soc
sVM
spl
samples
tM
tp
tt
t3
ten
tal
tro
tour
tourlet
u0
uI
und
va
v3
viv
vide
vascular
wk
wm
worm
wins
xc
yw
your
yield
yeast
zk
##hz
##hub
##high
##hill
##hare
##harts
##hecker
##house
##a1
##aZ
##a20
##aware
##aky
##aCode
##rA
##rual
##rice
##rack
##random
##rule
##rda
##rpm
##dir
##dynamic
##drop
##door
##nl
##gear
##0N
##MK
##Mu
##M3
##S0
##SX
##SCSI
##Pi
##P1
##PQ
##Pol
##POS
##Pos
##PTP
##PRO
##BAM
##BRP
##BFS
##BIP
##Boot
##RV
##RX
##Raster
##IAC
##KO
##Kb
##Fl
##Fin
##Fit
##Field
##FLASH
##Factor
##Cal
##Cap
##CED
##C64
##C55
##Ctrl
##Of
##OLS
##OTS
##ORS
##OOP
##Vid
##NDA
##National
##Note
##NLL
##uB
##uv
##uce
##uki
##c2
##cy
##cf
##cow
##case
##cia
##cost
##chem
##cached
##k2
##kv
##kers
##l3
##last
##lateration
##1H
##px
##pache
##pher
##pair
##parity
##tab
##tap
##tem
##tore
##DZ
##DoS
##DEM
##Dock
##Distance
##Agg
##Apriori
##bS
##bur
##bound
##bleb
##s1
##sT
##530
##mey
##mester
##matrix
##970
##4C
##485
##488
##4Linux
##2N
##2k
##Evolution
##TER
##Tail
##Term
##Technology
##Torrent
##Tracer
##Gis
##Gram
##GHT
##Gener
##Growth
##wos
##wers
##will
##wide
##wick
##yS
##yography
##yami
##yama
##686
##6100
##LQ
##LOM
##Lay
##LED
##LRR
##Layer
##o1
##oL
##oer
##Worm
##WTS
##WCF
##QQ
##3E
##3VM
##350
##X＋
##X906
##＋3
##840
##ZO
##JO
##JDK
##JECT
##vo
##vat
##vare
##fg
##fee
##flex
##xzz
##Ho
##HH
##HSP
##zw
##ero
##erick
##erling
##inated
##inating
##invariant
##ened
##ores
##orpor
##oresc
##tix
##tire
##tichi
##etor
##etary
##anel
##anade
##anography
##anechni
##ebuffer
WebP
WebDA
Webof
WebVR
Webview
WebKit
WebBrowser
WebSpider
##alart
##arified
##esource
##edi
##edel
##elman
##elder
##ropl
##atomy
##ici
##icus
##icker
##MLink
##rie
##riel
CATC
CACO
CABI
CA6140
##itative
##terson
IPN
IPoE
##acing
Inher
Inection
Inference
Inlay
Inprise
##SPCA
2051
2035
20cm
20Mn
XMLHttp
##ombe
##utch
MAU
MASM
MADP
##LAX
##owitz
##uls
SVHN
20050
200mm
##IDL
##PSVR
##PSTW
##PSnooping
##ocentric
##aming
##amine
##ammer
##iled
##emap
##ematics
##DAT
##odograph
##MSM
QoSMIC
##ervable
##ervision
##ident
##agion
##ogou
##net＋＋
##chester
##chains
##ectang
##avec
##avascular
SVME
10kHz
##add
##SSS
##SSDP
##ETX
FPP
FPMAX
##ARA
SIU
theories
inection
3DL
3DVIA
Progress
##CTarget
##anson
PSG
PSTP
##indle
##ifiable
##ineon
##DM642
##veal
JavaCC
TCPA
##PED
##PENT
##OSHOP
##urve
FPGAs
Matal
##ontz
##PCE
CTLS
CTES
##osl
##oso
##oside
OpenPBS
RFP
Windows8
Windows＋RTX
##trat
##trait
IPv9
##egal
COCA
COIN
CORA
COFF
COUNT
CONTR
##MMPS
##207
##205
##PNF
##ormack
SOF
SOG
SORP
##ompl
##ovie
RTOC
##PPeriod
CCBR
CCLDA
CCRAA
1150
WST
Chap
Choice
Church
##AMA
DSP＋
Visitor
VisIt
##STA
##evision
Stu
Stamp
Street
PSODE
##ODB
##ODH
SDU
SDLS
1550
15min
##ffuant
Spa
Spoof
Spalart
SA4
SAG
SATL
SALSA
##ums
##umo
##ourcing
SS7
SSIS
SSDL
SSVR
1601
##FSET
##IPD
AutoEncoder
MPIS
MPFR
##ieh
Shan
Shelf
CSV
CS2
CSCA
CSCT
CSIP
CSDV
Contention
Expl
Exemplar
Arb
Articulation
DDCA
DDES
DDRA
Acceptor
##istence
##istingu
MSVD
MSXML
SPDA
SPRM
SPRA
SPKF
##DDC
VB5
##RSR
RSIM
100mm
100MB
AutoCADR14
alg
Cla
Clang
Clinical
25ms
MRN
MRDS
508
##ighan
DTU
ADK
ADBR
AD78
ADuC812
ADHOC
##IEDM
MCES
MCVC
SMOG
IDFT
IDWT
IDGSO
HTCP
ATBM
ATMI
Ali
Alg
Alth
Algo
##anne
APIC
DCSS
DCDM
DCDS
NPM
##OPF
ACGA
ACCS
ACNS
##acham
GAAC
GASS
GAINS
GAMMA
DS24
ISEG
##ynx
##ynthetic
Labs
MultiR
Multiway
Multiuadric
Multiplicative
thor
CPMS
ASEP
ASIA
AP214
isual
907
##berry
SNF
SNORT
ApEn
##plica
##plates
VPNs
Sche
##124
compet
Compass
Comparison
Reiser
MII
Intuitionistic
Enh
Entities
EnDat
steg
stored
SUB
shock
shown
DBCS
DBPSO
##MFDA
Logarithm
IEEE488
conception
conugate
conscious
##32E
217
DAAS
LEAF
##ilege
##RADE
ICEA
GPGP
CFN
CFSM
CFPPeriod
LSCA
ROCA
ROBS
ROIA
CBDC
##EAI
##ointer
##oinformatics
ModelMaker
327
325
322
NetSlice
DPR
DPT
DPCP
UGST
##200X
1850
##MCW
##HPM
adding
additional
adacent
##IFAC
##IFFT
rewri
ABI
ABDOM
PRD
PREC
PRoP
CDCL
SIPLS
SIPOC
##NCLUE
241
RAMS
RABC
RSSR
MDCP
MDBF
Diffe
club
clock
clonal
EMAC
##ernion
174
##oreal
spe
CURD
Minimization
Minpts
Minicore
IPSee
##ikstra
SCML
SCOM
SCLS
SCIE
SCGML
SCDPT
##WTH
Sugi
Their
60Hz
NCRA
##ITAS
CGC
VRMLScript
##atially
resol
suffer
suffix
TFQMR
##OCH
multiresolution
multiobective
Stress
TSCM
DMV
DMCA
DMPC
DM3730
Harbin
DRN
DREAM
ECHA
ECharts
##zza
2250
##mm2
Meanwhile
##DTM
##DTC
##ferred
CoNLL
choice
##endor
##endik
DFx
DFH
DFNN
DFMC
minimization
EPLD
##aily
Win9X
neigh
##40800
ICAP
Another
##AVL
SURFER
TC2
239
236
MBB
MBK
MBean
AMH
AMEE
AMCC
AMPSO
arbit
##DBR
Elimination
RPs
RPAA
DataTurbo
##eath
##uille
PIB
DLs
##crip
CNCI
CN61
Queries
Trend
Tricon
PHMM
inters
interior
interfaces
MEI
##prob
Transl
Transit
TransAH
MISTY
##REX
ArcMap
Plone
Platoon
Plasma
Ge2S
Geoscience
orth
HTML＋MathML
netw
MFSP
MFIA
MicrosoftVisual
DEMO
PMDA
##LOQ
TMs
Implicit
##share
##shrink
##anck
login
INMS
##ookit
GMAC
ESQL
ESCI
appear
Forrest
MORPH
Retweet
357
356
##illage
Hellinger
##896
VegaNet
MTO
MTE
MTJ
MTMD
IBSA
Maxout
MaxProp
ActiveXAutomation
FSCS
SEN
SECS
SOMP
CEI
CEDP
LTCPP
IMDS
IMIC
IMRM
##15K
##156
##158
SWP
SWC
SWIFFT
MASDE
whose
##CSICT
SparkStreaming
LBE
LBCA
LBMC
LBGR
LBPSS
MMNC
MMORP
Monta
PASS
292
293
ISO18000
CLK
TVAC
GSR
GSFPN
discip
topological
EAB
EAL
CRR
CRAC
CRDM
CRH3
Deffuant
##ricks
NDCC
TDRS
unlabel
300M
300ms
LDW
AGU
Schedule
Schatten
GrC
Onion
MLX906
RCCSE
plasma
AVP
978
trade
truth
PERF
331
##531
REDO
Recent
Reckoning
TICT
TIPC
##ENIX
500ms
500hPa
LACP
LAMMPS
Deepweb
DeepWalk
PLCC
KinectFusion
HPM
HPG
12864
##serat
matting
IAL
PTCPN
317
IGWO
SFF
SFO
SFQ
Liang
##Clust
FMAC
ANGEL
IRQ
IRES
HMOPSO
relief
release
BTI
OMIS
MVR
MVO
##CHOKe
##Simulation
HAWA
TPM2
3600
441
DCSK
EFL
GEMS
GECT
GEANT
UCN
UCLA
collabor
BiFe
Computers
VMTS
OBIE
890
MSCR
MSChart
Prevention
TBF
DHM
DHI
GTNetS
Tries
TriMedia
HESS
1000Mbps
ERW
##ickle
##Cr2
##Cr13
##CrMn
JAPS
##InP
AFE
regard
regulation
##dinger
Virtualization
VirtualBox
SBV
SBN
SBIR
SBFL
##WAL
PNCC
GRIN
NLMF
NLBF
SHGC
SHIQ
transformed
Protocols
perturbation
##100m
CSPE
OPL
OPMs
modifying
MNP
MNSS
IFR
FDOA
BRO
347
EDRA
GND
TLL
Si3N4
##ossom
483
4800
EBST
EBAT
##onsin
Corp
Corpus
400MHz
##tives
556
5500
LCO
LCNF
BBHE
DICache
ASMIWPSO
outcomes
##monds
Discover
THF
THU
THFE
AIMS
AIFS
Cloudlet
CloudStack
VLEP
GC2
GCNET
newMFCC
grammar
NASD
SigComp
classified
coarse
##pute
##Prot
##Program
##Proxy
MESI
REQUEST
##KSVM
##oking
##ledger
374
LLSA
Set5
150MHz
DOOD
UMR
UMX
Hermit
Sheet
SMSA
DIMS
OTN
NiOx
attestation
426
ISA100
LFB
LFRR
Movement
009
Turn
HRPNC
LPC24
LPC2106
ELK
ELCA
ODQ
ODIN
##straints
Greiner
POJO
##HMR
assistant
396
FOE
HCNR
Island
Manual
Moroz
Diver
edition
editor
edges
realization
OODM
Moldex
BOIN
CSSCM
IVT
ell
elD
else
Microstation
LWF
CCST
COStream
COSFo
##Scanner
Medoid
flux
Nonlocal
AVStream
Surveillance
Zhong
##HC08
EXACT
TINI
LAN91
SPARCV8
GDBS
radi
Fe3
Feig
FrFT
##flict
repeated
PowerBuilder8
BLyS
##uestions
WAMS
Abd
Abacus
8251
MIDD
Piegl
Subsystem
Superman
AHD
LUN
##MBps
constit
consumption
consuming
B2O3
formation
Steinberg
backbone
testo
ONO
Epanechni
Heap
P3E
USRP
McG
RankSVM
Symmetry
Pointche
RLSSVM
##6600
Infineon
FreeSW
##azh
Assisted
Brenner
##WFN
##WFLICM
Backus
Backward
Backstepping
Note
##ryptfs
linkage
HowU
MGR
MGLS
##TIOA
CCMP
GeoRe
Blocks
Blocking
P2SP
schedule
SoD
Soar
##WO4
solar
MIPS64
preprocessing
MUD
Repeat
reuires
Toms
HFG
IMAP4
JobShop
PROJECT
Multisim8
EdgeCAM
##aracteristic
Canal
triple
trigger
terminal
BEDF
##CRIPT
RFC25
250m
Guig
Guarantee
BDCT
BDND
Melnikov
2325
FIMS
SSH2
SKOS
species
UserID
CDHMM
Monkey
PARAF
PARSEC
Units
Cuk
CuPc
##Chi
##Chip
Fuzzer
Authorware6
seuencing
AAMs
Publish
KSOM
ExtendedYaleB
MPSS
Answers
C8051F340
INSE
Infini
Infinity
SPECvm
Genetics
LZ78
softwar
Polymorph
GIKFCM
R2R
03mm
EVES
LaTex
S700K
n2logn
accompl
FGFCM
MRPCA
surround
surveillance
CMP1
SemaCode
Navigator
STAX
SLIC0
Optimistic
Optimize
PGF
##ircuit
HDRI
Honeywell
increased
EPSS
JMCT
VAST
YOCSEF
ZnTe
TWC
Virtex5
Saturn
SCIR
Consumption
Consistency
Chem3D
synthes
2k＋1
Opera
SignalTap
PUFs
SAP2000
##BDG
SQLite3
VERITAS
GreedyB
QPID
ranked
SMOreg
Connector
NodeOS
MathCAD
MathWorks
WCETT
BWAS
Semantics
##Modeler
Developing
EXPTIME
interests
4000L
SCTCMAR
Steff
shapefile
BITK
Temperature
Updating
MSSC
##mitter
OVRP
Petfi
eCOS
eCryptfs
SEAL
Baader
Denoising
SDS200X
critic
##Forge
1024768
##Reader
multicasting
##Expert
DNPS
##HITS
1302
eMTM
Gait
GaInP
CUP1999
libraries
##Plant
TrueCrypt
Checking
CheckPoint
Checkpoint
HoG
Hoover
VQn
black
##Action
IKH
IKPCA
summary
MAGIC
explain
exploring
##bara
arrays
collecting
TwigStack
##Te5
##loading
SourceForge
showed
Decor
values
##FRLS
Chambol
FIPD
Kuw
IDEAL
Quadro
Riyami
##GNMF
NativeXML
studying
##rupt
Fitz
UNIFAC
ARCGIS
Accounting
Splitting
Galaxy
##plicate
Goldstein
Goldfarb
RoHS
Karats
SAMF
NWPU
guide
Combine
Gbest
CQn
CQC
DKCHER
calculation
BerkeleyDB
LiveWire
RSMT
SciFinder
facet
ASCRA
Knn
##escope
Electroencephal
CycloneII
DropTail
ERTOS
RULA
LARS
TMS320C64x
GGVF
MCTK
UFIR
OTB2013
Semihex
SELF
Massart
CFAST
11eEDCA
BSSFM
##inetransform
Organic
PLASMA
Chien
DAEs
DDAGSVM
apReduce
COPRA
Symbolic
Publishers
3Com
geometrical
IWPSO
IWOA
IWQE
notification
noticeable
##Admin
##Adaboost
TSMC0
IBCF
Ricci
IMCs
Vaadin
GPCR
Bookmark
##Appro
WinSNMP
university
Ariz
Hollywood
focused
running
therefore
JNLP
Tensorflow
UltraS
volum
waters
Pointer
predict
predicates
##7312
Recurdyn
sheet
shepher
utilizing
##＋Struts
##xxx
Mbyte
Weighting
Ester
SIDMS
locating
Aggregated
NIOSII
Nandflash
failed
CELF
CELL
QDCT
Understanding
nRF401
##C550
adaptively
Charvat
PROMISE
organizational
Nagumo
VGTP
Instrumentation
ITC99
LSC87
DUIF
warning
##ploration
harris
interactions
behaviors
capacitated
DRAGON
DRTSADL
Omron
correcting
lnc
##MnO3
##pensive
CFITL
##Internet
LPC2148
##iosk
##Leak
CABMS
##otherm
container
fluent
OODBMS
Numbering
YuV
dimensions
Concurrency
Cosserat
lossy
separate
twig
Griff
Mambo
##FeCo
steady
parameterized
PhoneGap
BKZ
CsI
G3M
middle
Sprayand
IDT7
WBANs
STC89C52RC
2DMMC
Bugs
##Support
##Suare
##＋Apache
RFSOS
Better
Digit
DOPs
Irvine
Mimic
Waypoint
CY7C68013A
Debye
gadgets
iBeacon
iBATIS
COBIT
COBOL
Letter
PLPRE
panel
##Ni9
EADEEG
increasingly
DynaNP
##WORK
secondary
Parker
PDLC
PIRD
##Scheduling
bootstrapping
Follower
IWSLT
NSPK
Okapi
consideration
Centrality
AZ31
Restart
Utilization
##ischer
periodic
permutation
telnet
##Library
Bingham
MJPEG
Tiano
filed
zernike
CAJCED
particip
trends
FTTCAN
OQPSK
wiener
##Color
TMS320C54x
precise
broadcasting
BARR
EEMBC
##21160
SSFNET
2DSVD
VXD
Stubbleb
ICDAR2013
DEXEL
adaptation
BenchMark
Fingerprint
uncertainty
JFKi
Bosphorus
Framed
JTC1
MTLBO
PNSR
nuclear
timeslot
LOAD
UDA1341
duce
rsync
##velopment
##variation
DDBHMM
Actel
reflection
individuals
maintaining
maintainability
nRF2401
nRF24L01
ENSO
Jeff
Milner
NIDays
RELION
causal
caused
Inspector
composed
TMS320DM6437
Mesos
Yaffs
rolling
Innovation
##avitational
VisualStudio2008
Refine
Replica
PhysX
annotation
surfel
Friedrichs
BIPLS
Gigabit
HSBH
SonD
T696
Woodbury
granular
##naissance
##accesscontrol
EMTDC
61580
Cocoon
Kempe
honeynet
##RAPH
##bedded
AD985
NetBill
interconnect
interconnection
Improvement
Capacity
RosettaNet
BEEP
JDart
Tilt
TORQUE
Xerces
managing
COLING
RSNDR
completed
Gabriel
zigbee
zigzag
COLLIDE
Ahmed
DQMRP
Rastrigin
lazyDFA
silicon
Autocad
AD590
AD574
Reinhard
ThemeRiver
suggestion
PMVFAST
Importance
GuestOS
Availability
publications
OpenDaylight
OpenDayLight
Correction
EYE
Frederick
GSBAR
Hitting
Koontz
KEELOQ
Ohta
OOTPN
Pacific
SfM
ceph
Install
Insert
Insertion
Ackley
Climate
comparative
exactly
Lewko
TMS320C62x
Libsafe
Libsvm
obstacle
Burgers
MICAPS4
heterogeneity
Chopping
IFEPSO
##ComponentAnalysis
PASCALVOC2007
Havrda
JLVC
Managed
MenuScript
hDWT
mSCTP
xPCTarget
##Virtex
##Q240C8
##engineering
theorem
Multipliers
transductive
deBoor
Hazard
##Insight
subsystems
Issues
employed
GitHub
M701F
THTC
Takens
foF2
gem5
sRGB
##Greedy
##roleum
AdventNet
convenient
COMTRADE
applica
##ohzmann
##ouncil
NNASC
Wonderware
ppC
##Widgets
##zhou
CADAL
##ambig
OpenRISC
Chromium
Cloaking
MIMLSVM
##rospection
GeSbTe
BSDS500
LM629
OBIML
Corslet
##neuralnetwork
MQSeries
##ategorical
CIE1976
magnitude
Fukunaga
MC68HC908
ndnSIM
Australia
Craig
Fokker
HEROS
Hungarian
Rssler
ethernet
witness
##b2Te5
STeC
AT90S
PHOTOSHOP
applicable
Grunwald
VIRTOOLS
EdgeBoxes
ISSN2095
MC68332
Williams
TVP5150
Donlag
LILI
Tobii
TUXEDO
Young
kSkyline
STRUTS
Introduction
excellent
WinZip
##eaturetransform
##uilibrium
CRITIC
GEneral
EDIFACT
SYNAPT
McAfee
OragentL
Kerckhoffs
OsBTF3p
Noble
Nguyen
Pontry
sybil
##hofer
STRAIGHT
Clauset
deformable
Montecito
Protel99SE
Faugeras
Aitken
Aegis
Jikes
Piazza
Pohlig
UaF
WCHNN
ZEMAX
hNGB
##varez
WebDAV
CONTROL
##istinguish
PRoPHET
Ge2Sb2Te5
MMORPG
unlabeled
BiFeO3
Morozov
COSFoTS
LAN91C
Epanechnikov
Pointcheval
FreeSWAN
PARAFAC
Chambolle
Karatsuba
Stubblebine
0B
064
050
013
022
031
039
0day
0183
1i
1e
1NN
1Gb
1east
2l
2f
2200
2Hz
2min
2Hermite
3t
3L
3J
364
3ms
3ae
3PAKE
4a
4R
4N
464
416
411
419
42C
490
4KB
5X
589
570
590
544
539
6n
6R
6X
6PE
664
633
688
7M
7th
732
715
722
717
8n
824
870
8nm
817
9s
930
918
Ae
Aw
Ale
Ach
Aun
AER
AED
AGL
AOL
AFA
AWA
AWB
AMAP
Bf
Bax
BEL
BMF
BWM
BQM
BCF
Bert
BERT
Boltz
BIDE
Bird
Bhat
BELL
Bouss
Btichi
Bricks
Cc
Ct
Cab
CQL
Coo
C200
CIB
CSTM
Cray
Cape
Correl
Casc
Coder
CkNN
CMDB
Cumulative
Cplex
Cahn
Council
Dd
Dn
D0
D4
D3D
DGS
DOR
Dug
DCAM
Deng
DKI
DOST
Duck
Ek
Eif
EVS
EGM
EVP
Emission
Egg
EKNN
EARM
EACO
EDSR
Eco
Eikonal
Fir
FOS
FRP
Fax
FRL
FFC
Focal
FOT
FRU
FHS
Ferg
FOL
FRD
FEST
FGR
Gc
Gp
G4
Gor
G2P
GFT
Geg
G10
Gall
GFC
GLD
Gill
GCL
GERT
GkNN
H3
Hig
Horm
Hier
HGB
Hite
HOC
HOR
HHS
HGC
HAND
HSSE
HWSNs
HPSS
Hensel
IIA
Irid
ILT
IHC
IELM
Icc
IWSN
ILTSA
ICSICT
Jb
Js
Jer
Jel
JML
Jing
JMA
JEC
Jup
Jave
JGraph
Jenn
Jbuilder
Jitter
Jadex
Kon
Kre
Kod
KRL
Kass
KRT
Kern
Kress
Keep
KCL
Kau
Know
Krink
Kuan
Kiosk
L6
LBC
LEC
Lak
LPCA
LCF
Leng
LWA
LHC
Lope
Lenn
LXT
LRTI
Mr
M8
Mir
Mort
MIA
Mene
MaS
Mox
MGC
Mission
MGD
MFPA
MEME
Mstream
Nr
Nn
Nm
Ning
NMM
NDD
NIA
NVC
NLE
N200
NTL
NaS
NDI
NIL
Nmap
NCAR
NFPA
NFTL
NNAF
Ns2
N2PG
O1
OJ
Oz
OSP
OIE
ORT
ONet
ODR
OVER
OOSE
POG
PWT
Pix
PDMA
PFM
PVP
PACK
Poise
PQR
PJS
Print
Punt
Pattem
QDS
QRM
QTM
QNM
QDSR
Qemu
R＋
RZ
Rhe
Rut
RRP
Rist
Rake
RME
REF
RZL
Sz
Sev
Sax
Sip
Slow
Sull
Sources
Seek
Saga
Sogou
Tt
Tf
ToS
Tod
TNN
TNA
TOD
T10
Take
TOT
TaaS
TiB
Toy
TWF
T74
Tiller
Today
TGBA
Ticket
Ui
UO
UU
ULA
UPU
ULC
ULE
URA
Uroad
V0
V9
Ves
VSA
VDL
VMA
VIE
VLM
VFA
Vote
Vcard
Vessel
Vulnerability
Vendor
Wing
WID
Wash
Well
WTS
Wisc
WFP
WTM
WFD
WFA
WHM
WLF
WGAN
Wimax
X0
XU
XCT
Xia
XCF
XBI
YL
YJ
Yin
YNSN
ZO
ZW
ZX
ZZ
ZSP
ZVS
Zout
ZHAN
aR
ae
around
awareness
bon
bur
bean
bio
builder
bond
bump
cv
cra
cable
cart
cath
cug
coh
coun
cogeneration
dS
dt
dro
dot
dram
dpi
eS
eD
eT
eEP
effic
eNB
echo
euilibrium
ft
f2
fw
fill
faces
fDSS
gm
g2
gor
hu
h2
hex
homography
hiding
hodograph
iN
iA
ib
iW
i3
iX
ice
iPP
iLV
iii
kx
lP
lw
license
little
lithography
ml
mH
mation
math
mill
mult
meter
mould
malloc
nal
nter
neg
odel
pd
pear
pose
pso
pseud
pipe
rh
ro
retri
sM
sD
son
sac
sle
sID
sam
sLDA
semiconductor
sustain
siph
t4
ting
too
tax
tone
tuning
treatment
ue
upper
v0
vTP
vers
vega
vlan
vehicles
wel
wine
would
wlp
walker
xx
z0
zw
zdf
＋O
##hel
##hom
##hyp
##hybrid
##hrink
##aA
##aform
##rp
##don
##dev
##due
##dated
##dep
##duit
##i0
##i＋1
##iogram
##iensis
##nity
##nids
##gc
##gar
##gpf
##M2
##M＋
##MDP
##MSPS
##Sm
##Sot
##SNP
##Social
##Signal
##SQLServer
##Solver
##Pr
##PW
##PCM
##Pay
##Phone
##Print
##Bs
##Bar
##Bot
##Beans
##Band
##Back
##Best
##Benchmark
##Bytes
##BMP2
##Rn
##R＋
##RDF
##RDB
##RANS
##Io
##Kn
##KT
##KCA
##KCM
##KDE
##KKM
##Keeper
##FX
##FJ
##FSA
##FEM
##Fourier
##Freuency
##F2812
##Fabric
##Flood
##C0
##C12
##C32
##CKF
##CFD
##OCA
##OGA
##Va
##V0
##V6
##Vor
##VPE
##VDS
##VIC
##VIF
##V210
##VET6
##Num
##NUI
##Next
##NEST
##Navi
##ugh
##uable
##uider
##c51
##cuts
##cons
##c2410
##kaya
##lm
##lind
##lue
##lust
##like
##lapped
##eV
##ees
##eve
##eos
##eping
##eBAM
##1x
##pons
##p2p
##Do
##Den
##Dem
##DOS
##DHT
##DIF
##DVD
##Decision
##Density
##Differ
##And
##Area
##bt
##bour
##bly
##basic
##binary
##benchmark
##bird
##sum
##side
##sodic
##5M
##532
##5200
##5mm
##590
##mu
##mine
##miss
##muir
##4G
##464
##486
##428
##4169
##2M
##2RP
##2DB
##2VP
##2515
##EAC
##ECS
##ECC
##ERP
##TJ
##Tunnel
##GAC
##GET
##Global
##UK
##ULA
##washing
##6C
##650
##La
##LDP
##LER
##oIP
##YT
##YMO
##WW
##WML
##WDM
##Walker
##Wiki
##Q9
##QPCA
##Queue
##3DS
##390
##＋K
##＋D
##＋Map
##＋Java
##8b
##815
##875
##ZK
##ZC
##ZLC
##Zoom
##JR
##Js
##JZ
##vr
##vd
##vy
##vell
##vable
##vide
##video
##vival
##fp
##fm
##fen
##fast
##fair
##files
##featuretransform
##x86
##xta
##HCA
##HAC
##HER
##HAT
##Hook
##Home
##zx
##zan
##erad
##inson
##inomial
##enode
##enko
##oner
##onius
##organ
##tile
##tite
##ethe
##etype
##etrics
##anass
##anies
##eboard
WebApp
WebNMS
##aline
##aray
##array
##artition
##eds
##edical
##ente
##ela
##eland
##rote
##ico
##icom
##icago
##asploit
##ria
##ried
CAr
CAO
CAOS
CARM
CAAT
##isual
##istive
##itex
##itary
##tery
##tered
##tering
IPMF
IPtables
##reader
##ISIS
##abling
Ink
Invalid
##SPARC
##sta
##ston
##olf
##olum
##olife
207
20nm
2022
XMLDTD
##aptic
##apse
##application
##oma
##oman
##omax
##omian
##omata
##uta
MAUV
##LAST
##ulas
##ulating
SVGA
##PSR
##PSN
##ocia
##empt
##emption
##DAI
##odir
##imi
##imp
##iming
##imbing
##erva
##idis
##agma
##opes
##oping
##ogp
##2PRep
##nets
##GAM
##GAG
CADS
PCV
PCMS
PCSS
PCRC
PCBA
P2Pbot
P2PVoD
Interle
InterSolar
##uscript
10k
1030
10km
10ns
10Mbps
BPEs
##ceeding
##igma
##adness
##SSC
##SSVR
Internet2
##EEM
##ARL
SIV
SIMM
SIPN
SIGG
intranet
inser
inherent
3DStudio
3DFE
Linda
##uxnet
##SAW
ProDesign
Probery
##iration
##CTTO
Adar
Adult
Additional
Adomian
PSU
PSEE
PSMA
PSRS
PSGP
ARL
ARUDP
##ifest
##ifecycle
##ticip
##tically
##FTRM
##CSB
##CSO
##CSL
##OSVM
##otype
##ontinuous
CTU
CTOPN
OpenInventor
OpenBIM
RFIC
##tractive
##ANK
1968
##unch
##DSC
##egra
##work2
COI
CORI
CPU2006
##20F
##2020
##ESB
##ESIM
SOIS
##oving
##DFLOW
RBE
RBAc
RTCA
RTCM
##NAMC
##IMU
STO
STIP
STFP
STPA
12h
12s
1250
12mm
12bit
CC4
CCU
CCRP
CCEA
CCCV
CC3200
11000
1110
Autoregressive
WSJ
WSNA
Chase
Charm
Chicago
##letely
##ionic
MATLAB5
##AMQ
Visit
VisiBroker
##RPM
##STR
##evi
##ppm
Stur
Stev
Stau
States
Stroke
Steering
Stuxnet
NSWT
NSDT
##BSF
##BSC
##BSDL
SDML
SDRS
SDDR
15K
##ICOM
VisualFox
Speckle
Spherical
##angoni
SA2
SAQ
SAFT
SADE
SAPA
##ummy
##RFI
SSW
SSOD
SSHC
1620
##FSE
##ERG
##ensics
##IPTV
PCAS
Simpson
##INUX
MPG
MPML
MPDA
MPCP
MPDN
MPKC
MPOLSR
Shack
Shacham
USBD
CSH
CSAC
CSDM
CSDS
CSVD
CSLDA
CSISE
CSHG
Contagion
ExH
Exit
Expect
Example
Exploit
Artif
SQL3
SQLJ
##EDV
##EDE
##10A
##1022
DDSM
DDBS
DDRS
DDIDT
##ubin
##ratio
Acid
Acker
MSEA
MSCD
SPG
SP2PRep
VBI
VBO
Beagle
CANsm
##ofinterest
MACO
MACH
WSNM
Andre
3050
RSIP
100P
100K
100G
100nm
Parent
Parray
Paragraph
Paradigm
allow
Flit
Flotherm
251
25dB
MRU
MRDR
50s
503
##ysi
##ighing
##MDroid
##RMQ
ADB
ADN
##execution
MCG
MCCS
SME
SMW
SMFS
SMPSO
SMOP
IDs
IDU
IDXP
HTK
HTBC
HT46
HTLX
ATD
ATAM
AT45
Altium
Alvarez
##649
DCs
DCLS
DCDB
DCBF
DCFS2
DCGAN
ACDA
ACPSO
ACFM
##achely
GALS
Server7
##801
ASPDP
DSV
DSW
DSRL
DSDR
DS19
DSFPM
ISCM
ISNR
##ynth
LabScene
Multilinear
Multiscale
Multidimensional
Multithreading
##GLE
ASCM
ASOS
ASCD
APl
APDR
OSV
OSII
OSOSM
905
SNPS
SNIA
SNoW
##ELEC
ITA
HSF
HSID
##plant
Scirus
Scribe
PKPM
CMN
CMCS
CMDD
CMOPSO
CMX86
##anket
##122
comprom
compares
comparing
compilation
Complier
Reach
Reworks
MITM
MIKE
MIKEY
Intelli
Intenet
EnO
Enabl
stock
stein
storing
strip
stutter
IEEES
SURP
SUKP
DBD
DBFC
##pton
config
conclud
218
2119
DASP
DAEM
LEG
LEPS
SystemVue
ICSA
ICDT
ICLBP
##RCF
GPDK
LSRP
ROE
CBSP
CBMS
##EAD
##mai
NETwork
Netb
Netware
LBPT
Markovian
DPid
DPFS
DPDK
UGI
exc
excess
exclusion
##24E
##LDR
##LDE
408
189
183
ANSYSWorkbench
Config
Conventional
Constructive
Congru
##HPF
##iai
rekey
reproduc
ABAP
ABLE
ABNF
PRG
PRW
PREM
PRIN
PROC
PRDT
PRNU
##udh
##udy
##olden
CDK
CDTC
C＋＋2005
webservice
NUFFT
##GPID
##TLBO
244
24dB
RAMP
MDV
MDN
MDU
enc
ence
entire
clone
clones
imag
imper
##BMRP
ADAL
SRIW
EMCCD
EMicro
Micron
##ernicus
179
172
spray
sparsity
spiral
2DNMF
2DNoC
2DCCA
CUBLAS
Snap
Snoop
SC1
SCNE
SCBSA
##WTRAN
Neutral
601
60m
603
608
Hops
##DE3
##arture
NCSA
NCEP
NCRE
NCUC
Oracle8
CGCA
CGWO
##513
Unsupervised
Unreal
reserved
TPO
TPL
TPACK
TPKC
TPGF
across
##entist
suid
sufficient
multiplication
multiprocessor
953
DMRA
asymmetric
DRAP
ECF
ECBM
229
##mmetrical
CVP
CVLR
CVPR
CoD
Coal
CoFe
chin
chan
chitecture
##endous
DFOA
EPMA
EPRA
EP2S
##ivan
Excel2000
IDSR
##aSort
Win7
Winner
Topsis
##408
ICAR
##ermond
Anyb
Ansc
Anomaly
TCF
TCGA
TCSS
TC17
TCBF
##162
##1688
Thes
MBPS
MBOM
MBOC
AM1
AMIM
Kalmanfilter
RDF4S
arg
arct
##OFDM
transient
DataSet
PIRS
SVDC
##114
CN11
Travel
TrAdaBoost
Traversal
PHO
MEGA
MEAP
MEIL
##DCNN
##proection
Transduc
64K
647
645
704
7050
7075
intens
284
##RESP
Plat
Plate
Placket
Planck
Goedel
anomaly
Blond
Blending
Blossom
Assimilating
FCSS
FCIP
FCBF
FCEV
Geos
Geodesic
Geolife
NTI
NTCP
NT686
MFCM
DEMA
PMB
PME
PMIS
PMSP
PPO
PPFFT
TM2
TMT
Img
INCA
INFI
FAU
GMT
GMW
GMMS
GMTI
CHEN
deas
deploy
MOAS
MOAT
distributing
352
35ms
35dB
981
984
278
2700
##8962
OFFSET
IBLS
IBPSO
IBBO
IBFV
FSD
FSW
FSFPN
Haw
SEFM
DirectPlay
CENT
##www
LTN
PBAS
PBVI
GBK
GBML
GBDH
GBPEL
Resc
Zerotree
ControlLogix
AAFS
BIOP
BIRA
BILSTM
##153
SWO
Modules
ModBus
timeout
whether
SLB
SLIM
SLED
SLIG
SLFN
CPSec
CPSNR
LBR
LBAC
MMIS
MMHS
Leh
457
454
45dB
45GHz
PAPI
STEP7
PDNS
CLG
CLL
CLCS
CLIM
CLKB
GridSphere
GridRPC
GSH
GSSP
GSQL
GS464
discovered
topk
tophat
IIPP
CRNN
CRAM
Deformation
##ricing
##riculum
MIMC
TDG
TDIE
300400
AGG
AGW
Scharr
Schaffer
Grand
Grum
Grace
Moeb
TOCTTO
MLDA
RC5
AVG
AVAL
AVDEV
URLs
PEAS
weh
336
##Stone
##ualityofservice
Recency
Recovered
DESO
KinFace
TICA
RMB
PeerSim
500m
500mm
LAGA
LAPP
sinks
DeepLab
NAE
NAQ
SIMU
SIMFS
PLI
FastR
OntoA
HPCP
HPLR
128KB
BSAC
TRIP
BMB
BMAC
Processors
PTAC
PTSA
OAGIS
Camp
indoor
867
C4I
FTRM
IGDSS
HBR
PFAC
88DCT
SFR
SFCS
SFIM
##Clu
Tooling
##similation
##spress
##spots
ANT
ANBD
ANDROID
IRV
IRQL
Uniue
Univalue
##ugl
##ugt
OCX
relu
##versampling
GMLR
L2cache
Secret
##RAME
MAX7
GLB
GLBP
DAGs
##SimRank
##Simulator
##oeket
HAI
Meter
Metasploit
9400
443
DCSR
LMO
LMSPCA
FLIP
TAL
Agen
Agem
Aggl
##engrad
BiGRU
##romechatron
VMT
VMOC
canvas
IEC61
OBU
895
Bits
Biterm
DHR
GTRBAC
929
##eases
Supporting
1000MW
Colour
##Input
AFNI
regeneration
##521
Polya
##scalar
##901
VirtualReality
SBOM
##WAY
NIH
PNFS
GRCC
ADSB
ADS83
NLG
NLFSR
SHOP
##values
transforming
SATD
FRET
perceptron
##100mm
Marlab
Marangoni
IFDR
FDCT
FDDL
BREP
Creaform
ETG
ETSM
ETKF
AdHOC
VPDM
VPQPSO
345
ABCD
ABCBA
EDK
EDG
EDSS
EDOC
GNMF
Realm
Realms
Si44
presentation
ORDB
48h
SQTS
SQEMU
Thispaper
DSS1
##augh
400ms
DMAL
keying
developers
TTLS
Generally
JAVA3D
TEV
BBK
NGVF
ArcGIS9
VSN
##GEPSVM
##airs
##ARTH
TMS320C55x
##monitor
VTD
Discre
THNet
VLZW
ALHOA
extensive
MCSVMs
##ismatch
Kerb
NASAC
SpringMVC
Levels
##Prof
subgraph
physics
phantom
##aft
SIMULIK
REW
KL25
WM2RP
##Spaces
##pressure
##pression
PUNA
PUAE
875
Cyt
allpair
372
376
##attch
RRDS
SGMM
SGRP
SGCMG
LLDA
Setup
Set14
DOB
DOOC
Slack
Sliding
WFV
LIFT
DFTS
Sheff
attributed
427
ISAF
Berners
DSMs
mapped
differentiated
LPC17
ELISA
manual
ADC08
Great
medline
MFCCs
WCCS
POSS
PORT
##HMIP
assess
assemb
assumption
assigned
FOV
FORM
HCN
Isol
Moravec
WPR
highest
meaning
BCEL
Dioph
OLR
OLPP
OOB
SYBASE
CSSC
CSSD
##ALL
IVFS
Microelect
LWCA
QualityofService
FlowShop
Redhat
HLB
HLL
HLFS
HLLE
dBm
##Score
##UMED
Clustered
Surround
FFO
FFSM
STKX
AuthorWare
delphi
TINY
LANL
##358
Classes
Classic
SISI
radius
Brook
##394
572
Frag
repetition
BLOCK
BLVDS
Viewpoint
WASP
WADE
WIN98
WIN9X
ICTs
Prec
Prager
Allmar
761
invites
invasion
AHMM
AHDL
AHPSO
6656
IMSI
##MBN
conserving
consumer
AJAx
former
MHG
MHKS
integrates
Atm
Atanass
565
562
563
McCl
PathWave
Pathfinder
BNL
Disease
RLGA
##xygpf
Windriver
Windwos
abnormal
Integrating
Associ
LQP
LQD
##WFI
SPCNN
SPComm
Softplus
IntrNet
Earlier
PSPL
PSPACE
DOAJ
##iverse
CCMM
GeoRaster
OCTEON
BlockRAM
IMMKF
IMMCKF
Swerling
QSVD
scheduler
SoRCA
##MASK
Peking
Peppers
TePA
DPAE
Testbed
prem
MUF
MUAV
##mapping
analyzer
Twist
G1S
IMAP
CWI
CWND
PROBE
SYNOPS
ADLs
MOSI
Engineer2001
250MHz
Guo
Daemon
800mm
QTE
MWST
VF2
Catte
Final
FinFET
Methodology
LonTalk
##Channel
ESPN
ESPT
Barbara
FATFS
Forming
Runahead
diagnos
diagonal
RIPng
SRCNN
VISTA
SPHIT
KSVM
KSII
MeSH
IDEFO
MKDA
MKNN
engineer
Aspectual
MPSM
C8051F005
Geometrical
INTRA
Cubing
clusters
ILDP
TRIPS
demo
Polygon
##rought
GIZA
MICO
MICCAI
flower
##forced
DYNAFORM
organized
organize
DGN
DGT
DGHV
EVMS
EVEN
LaB6
electric
##KCCA
CARMA
CARPENT
BioHashing
CLASS
CLAIMS
FGF
FGMM
FGOC
FGKA
Magn
NCSR
Removed
characterized
Corei
optimum
optimizer
JPL
STAAD
10Gbit
PowerPC405
dimensionality
oblivious
##2SC
price
pragma
increment
Virtex6
busy
iPod
Passive
Sattime
Satyan
crossover
ChemDraw
synchronized
underlying
Capital
Caputo
Video4Linux
KAF
KACA
gradually
RTXC
MCP2515
DCAR
VERI
QPAS
T213
##scheduling
BWD
avionics
significance
DDMR
LOWTRAN
capabilities
##Graphics
Actions
BigTable
LGIF
Stephen
80C552
TeraSort
XCON
XC2V
XC2VP
##592
SQLServer2005
EiCom
JFNK
Variables
person
Blackboard
Glom
combines
CGAL
Merging
Pcanel
Cryptosystem
optics
sina
sin2t
EOCS
Pushlet
EWCA
Tagged
peers
connections
connectivity
DNL
cyclic
BPRAS
ADSP21160
CSTS
CSTN
VDHA
emulator
segments
HUD
Tasks
Adamic
DTCB
BUAA
Bounded
Drucker
Memcached
Environmental
3GPP2
QAB
ampl
##Platform
##DG128
ITUbee
Errors
SSTS
SSTk
curvature
Experts
9001
HHMM
blast
blue
bluetooth
##Actor
channels
MAGFT
explains
220V
CICOQ
##Conf
Interesting
collect
MDPA
proves
CompactFlash
MDT6
SCRing
Alexnet
DPSQL
##341
S2E
SMAT
decide
timer
SPRING
tional
UNITY
UDWT
##colony
Account
Smalltalk
SplitBregman
Analytica
Hooks
M3G
##plicity
Pico
Roess
db5
db2
floating
##zero
SFCL
carlo
Mobicast
guage
##BLMS
##vester
Combining
SNAS
WinCE5
Landsat7
Caste
DKOM
calibration
##unny
itemset
Devices
##computer
SciSimu
Valid
faced
CRSD
Duplication
Knapsack
SCPI
Anytime
Speedtree
CdZn
Cdc6
ESSTE
##Arx
##Arch
##Architecture
##Array
SiCp
MRAI
EigenTrust
PbS
UHFRFID
##trict
Impulse
DQB1
IQGA
limitations
1500A
OTB100
agile
Direct3D9
MEDB
Massively
##ylus
IDCs
EAServer
META
NSAP
Addressing
##struments
Surflex
SurfControl
K2DPCA
handle
H2H
PLACE
broad
##undo
Chiu
Kingbase
OWD
##Visor
EPREM
FNLM
gentle
C＋＋Builder6
KeilC51
Codex
Savart
Burmester
Freuently
ILSC
ILSV
loops
##Adap
transactional
89C2051
Built
Dytran
PANG
SMARTEAM
roughness
reconfiguration
Effective
DTMOS
COSMOSXpress
CCPR
Kimmel
BlueGene
CY7C09
MTCNN
fitness
Complexity
Hydro
Hydrodynamics
Hydromechatron
ASAP
retransmission
##integr
ACTIVE
Godin
IMPCA
SPFQ
ISTP
ISTX
QMRA
team
##1501
ICFG
SEPA
##Transfer
DTECS
SMILES
PIC16F87
IRCFG
PubMed
PatchMatch
AceMesh
LIFO
TPAOSS
Jetson
TQD
COAE2011
Chaudh
Flightgear
0241
CJFD
##Partition
MAKAP
HttpClient
Nagel
PDRR
##piece
MCF52
Symlets
CEMA
Fairness
##Blt
DFMEA
EXT4
D2Q9
HKKS
Lawrence
##SOAP
Inverted
DEEG
##CNNC
LPC2138
LPC2119
Foxpro6
Bertr
HCMM
OHCI
SNNM
Vanstone
creation
create
contains
smoothing
2PV
CiteS
Customization
Tetrahed
GPRs
SyncCharts
2302
Reporting
converted
ADVISOR2002
Analyst
Hypothesis
Novos
##XYZ
impostor
transportation
Secondary
Secondly
##Suite
##Detection
RFSN
execute
TerraSAR
APEC
Betw
Digg
Divide
FLAIR
Nasda
epoll
alternative
APROS
Muhigen
CLEAN
D3Q
GMSK
TETPM
iBGP
iBatis
lifetime
ternet
##Assem
Define
classifiers
abstractions
Wolfe
Brep
QUIC
QUEST
QAPLIB
cubic
##fiher
WebitX
planar
plants
photoshop
729A
Haskin
Nystr
Nystrm
NIPD
NIPXI
Tenengrad
USTC
##Auto
##Geo
##folding
EP1C6
NDBC2014
Prototyping
investigated
iceberg
SDOCT
algebraic
FLEX10K
Following
Deformable
Newsgroups
Athlon
Saliency
fibre
revers
##transmission
Ready
Diagrams
IVIFS
Birge
CSBP
tele
##PageRank
SCHEMA
LiNbO
selectin
Filebench
MJP
Title
Widrow
film
SimuWorks
replica
summarized
PIC16F877A
##＋Hibernate＋Spring
Akima
GLARE
HPSG
IoU
iTunes
laws
ultrasound
ispLSI
NSTL
Taubin
Characteristic
8086CPU
Confidence
2DSynthetic
850nm
Cry5A
G012
MakeOne
Singal
Separable
situations
##Topo
Winnowing
FAMC
Printer
Printed
SiteSearch
MOVNS
demonstrated
Cheon
CFCSS
homogeneous
nucleus
Market1501
refresh
CVFDT
OBDMS
Discrimination
Linguistic
Bouc
NorFlash
TSBS
rtORB
Editorial
calculated
members
AIDD
C6701
Inspection
20mA
Contourle
Corel5k
pSOSystem
Aeronau
IDPKC
Langmuir
UCDOS
illustrate
ulti
##Monitor
##uota
SABIC
Replacement
interestingness
##Region
##balance
CLOSED
BioSun
particularly
S698PM
GRMTAP
Occlusion
WBCL
iLBC
##RSSI
IPFIX
informa
RTVKP
GeoServer
ordinal
ADS7843
##Connection
4CBA
DotNet
Dryden
P89C51RD2
Tracing
##Propagation
##Distributed
Adustment
##titutions
Telephony
symbolic
AT91SAM92
therapy
DynamoRIO
NDQJava2
CPEBSDL
C6416
GDMO
Latency
MNSAC
NEDI
Pthread
RocketIO
Satisfiability
wSN
##dcup99
##Br3
COLLNET
Standby
minimize
GROWTH
triangulation
CHTD
oxide
##iSOM
##asmine
shipink
shipinki
references
suggest
compensation
overlapping
concerned
dsPIC30F
Hydraulic
Bipolar
KPPCT
LFSN
Practical
UbiStar
Protocal
Lewis
LPC2368
obstacles
establishment
SINUMERIK802D
CoopCAD
P89LPC
illeg
printed
ratings
##Robust
##Order
##Locker
innovation
innovative
Flowshop
deficiencies
SLURM
PLBCA
ispPAC10
##romaticity
2DDCT
AIFSA
Boeing
Boehm
Crosspoint
Podolsky
VIRR
WDPF
cmaes
cepstrum
grained
holon
systematically
reusable
CHN144
MNDWI
explosion
Ripplet
VanetM
Ginkgo
Gardner
IVMiner
IKFDA
Multicut
Vivado
evidence
femtocell
gpxygpf
petroleum
retrieving
tetrap
AD9851
NetCDF
Implementation
GridDaEn
CarrierFS
UCB1400
GReP
SHLPN
Broadcom
AT91M40800
##ParticleSwarmOptimization
4PCS
NRRO
Rockwell
Sacco
Sagas
dyna
igBee
pleasure
virtio
##Remoting
SVLOF
Interconnect
3DMIMO
##ipelining
ABOOE
ABDND
OGRkNN
AN2131QC
SBGFRLS
Guassian
BRAVE
Hetero
Holland
ILEACH
Laboratories
Ochiai
PWLCM
Rudin
Totem
dynamical
pulp
patient
tendency
##Bugs
##Gaussian
Promise
SimPowerSystems
ATMEGA
MintRoute
TreeLSTMs
interacting
ancestor
IGMPSnooping
Hausdroff
Edgec
SHACAL2
SYSTEM
INTERBUS
experiences
TW2824
Hubbub
JN5139
JBIG2
derivative
HTPXIe
6DOF
Causality
Cochrane
Dorigo
Dassault
Illinois
NGPD
Opposition
OHTA
Tyler
literature
voronoi
##blesort
##21578
##8139
RSView32
SNOW3G
PROTEL
interleaving
Comonads
Hughes
LapRLS
GROMACS
430074
FOXPRO
Watermarking
microscope
Raid5
AoPm
Cycloid
Dolphin
Gomory
Jakarta
Lupa
Misra
MuxOS
Spencer
Ucinet
tremendous
##F672C
##Affn
##University
Sprott
Shanno
CS5460A
Paradox
PROGRAM
Oracle10g
Traditional
discretec
FastCGI
LM3S8962
Guaranteed
Cerebellar
agglomerative
POLYFLOW
Estelle
Eberhart
OSBE
OICQ
X509
buyer
damage
rigid
winsock
WebofScience
Arbra
Steffensen
Kuwahara
Arizona
lncRNA
BARREL
T6963C
##ambiguation
42Cr
Boussines
Eifel
FOTV
Fergus
FESTO
Hormann
HANDY
Iridium
Jupiter
Krinke
Lopez
Menezes
Moxa
Poiseuille
Sullivan
T7451
Washout
Zoutendik
cugb
fDSST
retrieve
siphon
##arayanna
CAATs
P2Pbotnet
Stauffer
NSDTCT
CANsmc
Enablers
SCNEO
##ermonde
Anybus
Anscombe
arctan
Plackett
Blondel
NT68665
TOCTTOU
Agglomerative
Allmaras
Atanassov
SYNOPSYS
GIZA＋＋
CARPENTER
Satyanarayanna
EiCompendex
CdZnTe
CY7C09449
Hydromechatronics
2DSyntheticData
Cry5Aa
0n
0M
0V
0p
0RB
0racle
016
045
062
0777
1d
1L
1ine
1MB
1KB
1pixel
1TB
2log
2PSK
2SC
3h
385
3bit
3MnO3
4M
4F
412
451
425
4bit
4nm
498
496
495
4FSK
5B
564
5Hz
516
585
514
513
5min
598
591
632
616
611
689
622
684
61000
6cm
6221
7R
764
730
785
7ms
714
719
7100
728
880
816
82C
822
839
912
970
Aal
Aul
Ate
Ather
AISC
Aka
AOSE
Ainet
AODE
A3000
Bam
Bil
BPU
BCT
B10
BEP
BOP
BGL
BTA
Bron
BGM
Bond
Bao
BWP
BGN
BHR
BJT
BTSVM
Bright
Bottleneck
Bacterial
Breadth
Bidimensional
BUILDER
Bohzmann
Cz
Ced
Codel
Cann
Cant
Cous
Care
CCAM
CWB
C67
Cipher
CINT
Ciao
Cooperation
CNAL
CNAS
D9
Dre
Dra
Dall
Due
Dire
Diss
Decomp
DRBAC
DGR
DLSTM
D2V
DNM
Duration
Dtri
Ew
Eas
ELC
ECI
EUP
EVE
ENT
Evid
ECPN
EQP
Evalu
Especially
F3
Fle
FSB
Fra
FBC
FHT
Fact
FTM
FVR
FBR
Fins
Fetch
Farm
Fuse
Frog
Fractal
Figure
G7
Gx
Gis
GEE
GBS
GEB
Grow
GTC
Gath
Gong
GLT
GGM
GIW
Gmail
GKM
Goto
GJM
GVSM
GRBF
Geva
H9
Hx
Het
Hind
Hoo
HBS
HMA
Hof
HME
Hierarch
HNP
HGO
HNB
HGPA
Hinge
Hirsch
I＋
Ion
Iab
IIP
IGL
IUS
IWSNs
INAP
IKCCA
Jag
Jay
JDF
JCC
Jour
Jian
JAT
JRC
Jade
Joy
Jump
JCST
Jxta
Jasmine
KO
Ks
KIS
KSS
KPSO
KFM
Kong
Kah
Kick
KRR
Kao
KMAS
KHD
Kyl
Khat
KISS
KDLDA
Kids
KILL
Kahn
KCTR
Len
Les
Lav
Ligh
LIE
LEL
LNC
LDT
LWS
LCL
Lmin
LVF
LGC
Lond
Lars
LOCO
Mm
M20
Mash
Mib
Mip
Mech
Must
Mign
MBM
MKF
MLAP
Mend
Meth
Mono
MQM
M＋1
Mond
Masc
M68
Mason
Mura
MFTS
Mushroom
Nc
Np
Ner
Nap
NRP
NMA
NBP
NOP
NEA
Nio
NDE
NRI
NHS
Null
NISC
Nond
NONE
NPSVM
Norton
Nlog2N
Oa
OAT
OTL
OOC
Outs
OHS
OII
OTV
OND
ONT
OOMP
ONCE
Oakley
Olymp
P6
Pag
Pion
Pall
PLAN
P2C
PUP
Pines
PEER
PSAT
PWSN
Purpose
Pitch
Padula
Pango
Qing
QES
QCAM
QCR
Q235
Rar
RIC
RVS
Rating
RUL
Roy
Russ
ROST
Rush
RKM
RISE
Ritz
Rother
R＋G
Renew
Ridge
R134
Rectang
Sor
Slab
Section
Sant
Sout
S60
Srin
Soph
SSSA
S5P
Tin
Tou
Tour
Tip
TAT
TGP
Tiv
TSTM
Typ
TQM
Tmax
TJA
Treg
TNG
TKA
Town
TASE
TLAC
TCTL
Tandem
Tribon
Um
Ux
Und
UMS
UMA
UEP
URS
UGIS
UUS
UTL
UANET
UFF
UFO
UFI
Vk
Ve
Vp
Vt
VPU
VLS
Vue
VEC
VHT
Vern
VFM
Vein
VGC
VQA
VSAT
VDK
Vlan
VSAP
VDLL
Vegetation
Wn
WJ
WoS
WFT
Wun
Wink
Wand
WRL
WUS
WDC
WFM
WRI
Ware
W＋1
WEF
WOW
WNB
WCTS
Wipe
WARD
WIMAX
Wattch
Xn
XQ
Xin
Xind
XQL
XED
Xuery
XCV
XPPA
XVL
XXT
XRTI
XXXX
Xtrat
YG
Yas
Yeh
Yellow
YANG
Yld
ZIS
Zag
ZSS
ZCS
ZPA
Zinc
ZETA
au
awar
away
bn
bed
bas
bode
bins
buck
bulk
bacterial
birth
breadth
cM
c3
cad
cse
canc
cult
cooper
clean
culture
correlated
categorical
dv
dx
dia
dmin
dmax
dIBE
duplex
drift
driving
death
ever
educ
eval
eBox
elev
eco
either
fd
f0
fie
fresh
farm
folk
fellow
finesnap
gc
glowworm
g2d
girth
hit
hve
hum
hys
hull
i2
ist
ioc
iff
iView
ign
iGPS
kA
kv
koin
kick
kbps
kohonen
ls
lm
ly
lx
lin
lation
late
lgn
lucene
mi
mes
mall
mann
mlog
mission
mKdV
mismatch
nat
nit
nay
null
negation
noisy
nMOS
negotiation
om
ori
oil
opportunity
oPatlak
pat
park
pTPM
pervasive
ri
r0
rc
ram
rain
rare
rotor
ranging
rectangle
sb
sen
sLA
sun
sPP
sof
sAT
sky
sizing
ssth
sadness
tent
tual
tie
tern
tube
tactical
ulog
ubi
vB
v5
var
vit
vocal
vmax
vc＋＋
wed
wri
wil
wLAN
xd
xVM
yon
yolo
z2
zation
zem
zgh
＋A
##hab
##how
##a0
##r1
##rer
##rub
##rFE
##reno
##dis
##dec
##dist
##dock
##differ
##ien
##iri
##iad
##ians
##gm
##gment
##0M
##019
##MAN
##Message
##Movie
##Sub
##Sys
##S3C
##Seu
##Sets
##Selection
##Sampler
##P2
##Py
##Pad
##PAN
##Past
##Part
##Pool
##Patch
##Be
##BY
##Big
##B10
##BEL
##BBO
##Byte
##Rf
##RCP
##RAR
##RDD
##RAS
##Ratio
##I2
##K1
##KER
##Kernel
##Kbps
##KELM
##Fal
##Fac
##Fre
##Fig
##FCC
##Fly
##FLDA
##F42
##Factory
##FRAME
##Cg
##CQ
##Can
##Call
##COP
##Cong
##Codes
##Coll
##Counting
##Cormack
##Ob
##OU
##ONN
##OCS
##ODF
##OTP
##Oindex
##Ve
##Vb
##VSS
##VOD
##Viz
##VRM
##Video
##Vehicle
##VHDL
##NV
##No
##NW
##NQ
##NTC
##NUM
##Name
##uM
##uet
##upt
##uary
##under
##uotient
##uPAQ
##cM
##cT
##city
##cian
##cio
##chema
##cott
##correlation
##kh
##kz
##kong
##kbit
##known
##lD
##l000
##lient
##live
##lustering
##l28
##lberg
##l01
##eo
##1d
##1Mo
##pr
##pal
##pop
##pad
##pion
##prin
##pecker
##pberry
##tel
##tation
##Db
##D＋
##DPI
##DDM
##DWT
##Dynamics
##ALS
##ALC
##AOP
##bell
##blog
##bGraph
##bauer
##sil
##source
##signal
##735
##737
##7135
##5R
##525
##md
##mc
##9A
##930
##4m
##410
##4DB
##2101
##EQ
##EAN
##East
##Ent
##Tor
##TIM
##Tra
##Tech
##Tester
##Tiling
##GW
##GSM
##GOP
##Golog
##GVF
##UMA
##URBS
##UDV
##wM
##wl
##wT
##wind
##west
##wavelet
##wizard
##yap
##yans
##yya
##6M
##690
##Ls
##LZ
##LOD
##oG
##otive
##oys
##oDE
##YM
##YF
##YC
##YL
##YNA
##W2
##WNN
##Wiz
##WMA
##WCAD
##Q2
##QCT
##3K
##3m
##380
##318
##368
##365
##＋l
##＋Q
##＋CM
##＋MP
##＋LL
##8C
##8U
##824
##8515
##JD
##JE
##JQ
##Jack
##vg
##vs
##var
##vation
##ville
##fa
##fman
##fare
##feature
##from
##freuency
##feedback
##frog
##flood
##x0
##xMD
##HSA
##HDM
##Hull
##HKS
##HNs
##Hunter
##zin
##zed
##zmar
##erc
##eray
##erty
##inel
##inis
##inate
##inant
##eny
##enon
##enas
##enee
##enbauer
##orx
##orff
##tiff
##tista
##etection
##anti
##anum
##aney
##ebase
Web1
Weblet
WebUI
WebQM
WebLog
WebMIS
Websphere
WebJet
Webuest
Webservices
##arev
##arck
##edence
##edance
##edWeb
##enty
##rof
##root
##roft
##rofile
##aty
##ateless
##icr
##iced
##icode
##astran
##astry
##riers
##rieh
##riger
CAIN
CAAP
CALT
CAIDS
CARD
CAAD
CACTI
##ecti
##econt
##econs
IPH
IPPE
IPDS
IPVS
IPIB
IPDSS
##acs
##aco
##actic
##acity
##reasing
##ISW
##abean
##abyte
Ini
Inex
Inno
##leer
##SPAM
##store
##stations
##olson
##olithography
2024
20Hz
20news
XMLWeb
##apore
##omcat
MAH
MAPS
MACM
MALS
MAMP
MANA
MAIM
MAPSO
MAVD
MABD
MALK
##ullet
##ulant
200km
##occ
##ochem
##ochemical
##ament
##amble
##amicro
##oux
##ilution
##emen
##emel
##DAD
##oda
##odi
##PUT
##MSHIFT
##ims
##iment
##imetry
##ido
##idf
##idWorks
##idding
##identification
##agne
##CPG
##oped
##ogan
##chen
##chart
##cheduler
CAD2008
CAD2007
PCN
P2PMM
P2PQR
P2PIPTV
Interent
Interpro
Interfaces
##avor
##avium
##avascript
##avelling
1064
1012
1056
10MW
10Base
BPDU
##igu
##adh
##NNET
##NNBDR
##SSI
##etrix
FPBS
FPCF
FPGrowth
##essels
##EEP
SIAR
inp
inversion
inputs
3DVR
##OMAC
##OMDV
Linden
##SAI
##SATION
ProCM
Proper
##CTOR
##CTrA
##ansky
Adaline
PSTR
AR1
ARAM
ARIO
ARGO
##ifl
##inetic
##CMD
##CMAC
##DMO
JavaS
JavaME
JavaServlet
JavaSpaces
##pending
##FTs
##FTDR
##CSK
##CSF
##CSG
##CStream
##PERS
##urt
##oted
##otte
##ontology
##RBs
##PCCA
##osch
##oseg
##osph
##osced
##ospace
##osinetransform
##LSAR
OpenP
OpenRouter
OpenSSH
OpenJDK
RFNet
##labs
WindowsA
Windows2003
WindowsDNA
##tration
##track
1932
##SMR
##DST
##egate
COE
COOP
COTA
CODATA
CPUE
CPU＋M
##20K
##209
##PNT
##ESI
##ash2
proective
prosodic
SO4
SOLA
SONA
SOCSVM
SOBEL
##SBN
##SBRF
RBAR
RBIR
RT0
RTCS
RTMP
RTDP
##IMath
STCP
STDS
STTP
STPM
ST79
##obo
12Cr
1290
CCIS
CCSA
CCKS
CCNP
##ithographic
UMLS
11dB
WSLA
WSUS
Chroma
Chwa
##manent
##DP3
##DPAD
DSPT
Visa
Vissim
##RPA
##STCP
##STool
##ppet
Stro
Stability
Stencil
PSOGA
NSI
NSN
NSG
NSSP
NSLA
NSOR
MapR
MapRe
MapWin
MapTo
##ODD
##BSAR
##BSVM
SDZ
SDCT
SDCC
SDCN
15s
1520
1515
VisualDSP
Spe
Spy
Sport
SpCCA
##EMBL
##angi
SAK
SABC
SABA
SAIL
SAGR
##umoto
##RFA
SSCA
SSDM
SSCS
SSRM
ones
16d
16M
##FSDA
##ERY
##CADTool
PCAP
Simatic
AutoDesk
##INER
tok
MPMA
MPFS
MPAS
MPFL
Shin
Shub
Shieh
USBOT
USBkey
CSMS
CSRF
CSIA
CSGP
CS3000
Contou
Contest
Contribut
Exts
Extra
Exspect
Exploration
Arts
SQLIA
SQL2000
SQLserver
##BPF
DCTCP
##eex
##EDR
VCO
VC＋
##1010
##1050
##1060
##10mm
DDRM
DDHP
##uble
80mm
80bit
80dB
Acoustic
##ists
MSc
MSRM
MSLP
MSEB
SPJ
SPDL
SPRT
SPVs
##TSF
VBEM
VBLAST
SARSA
BeZ
##esting
##estwood
GPSGSO
##ofs
##EPA
Anderson
Andrm
##RSVM
30d
309
302
30mm
30MHz
##GBM
RSNN
RSDE
1002
##iping
Parts
alloy
alumin
##eduplication
Cl2
Clin
Clight
Flame
##tsov
MRG
MRTS
MRMF
MRLR
MRTD
MRCPSP
501
507
505
DTSS
DTOSS
##RME
ADSA
AD99
ADIDS
ADsL
##IEA
MCDM
MC132
SMCM
SMOT
SMDFS
SMRR
SMBus
SMURF
VRV
VRA
IDCM
IDRI
HTCon
HTrFE
ATB
ATX
ATMS
ATNN
ATMP
Alarm
AlSb
AlGa
Alchem
forces
##peria
##echt
##ann99
DCSP
DCFT
DCVS
NPF
NPA
NPT
NPMI
##BCLU
##thing
##thread
##threads
##GISS
ACSP
AC97
ACELP
Delaun
GAs
GASPA
GAD2
##80A
ASPS
ASPCM
DSp
DSCM
DSFT
DSOD
DSIF
DSearch
DSCR
ISN
ISDE
ISRAM
ISLPA
Multist
Multilayer
Multiprocessor
Multivariate
Multidisciplinary
##VCL
though
thuring
thesis
threads
throwing
CPDP
CPCAD
CPFM
CPVP
ASG
ASML
ASVM
ASUM
ASGT
APnet
APCS
APON
APACH
##ATW
isometric
OSDR
Servicein
SNARC
Apr
##ELD
##ELLE
FCMC
ITQ
HSRM
HSLG
137C
##plas
Scanning
PKS
PKA
CMIA
complement
compreh
companies
CompC
Compress
Composition
Completely
Refer
Refined
Reading
RePast
MIK
MIRS
MINST
Intem
##orientation
##orities
##orials
Ent
Encoding
PLCopen
steer
stages
stops
steering
stride
styles
IEEA
SUT
SUBCLU
shill
shah
DB1
DBG
DBH
DBCT
DBaaS
##MFA
conversion
conuer
congru
DAB
DACA
DAAM
LEA
LEGO
##iley
##RAL
##RALL
##RCR
##RCES
GPOS
GPDP
GPTS
GPTR
CFF
CFNN
CFDP
LSN
LSCM
LSQR
ROBDD
CBU
CBDA
CBST
CBFS
CBLT
##ustin
##ustries
##EA2
##LMRA
SOAD
systemC
systemon
##RTool
##RTEX
##RTDBS
##ma2000
NET2
NETFLOW
##LPR
PCI17
142
1450
NetBIOS
Netfiher
##timacy
Markovchain
DPDA
DPPI
DPVM
DPRAM
DPBIRCH
DVHop
CAMC
UGM
exch
extr
AprioriAll
40m
409
40Cr
40MHz
COMB
COMA
COMET
1820
18um
##rolling
ANSYS10
Conic
Convention
Conversion
modelsim
advertisement
##IFO
reas
##aryya
PRH
PRPS
PRRS
PRESS
PReLU
PROLOG
##udge
CDSA
C＋＋AMP
NUIS
NUAA
##TLOCK
##TLOOK
##ausdorff
RAO
RAk
RAIS
RASP
MPEG1
MDK
MDCS
MDPC
MDDS
MDCI
DiffS
imple
implicit
immers
##OAD
##OAs
SolidWork
SRPS
SRDA
SRUF
SRUPF
EM78
MicaZ
spac
spaces
sprite
spinning
2DGE
CUR
CUF
Minimax
Snmp
##iko
SCK
SC2
SCo
SCoS
SCNN
SCRP
SCXML
SC36
SCBox
SCOSD
##TAB
Suarified
Nei
Theore
60dB
6061
6024E
##DEVS
##606
NCE
NCG
NCut
NCRS
contem
contention
##ITM
CGM
CGCS
CGEP
CGSL
##MIB
##MIL
Until
Uneven
##atigue
MPIActor
##3DVCC
resistive
TPT
TPMS
TPPN
acoustic
TFI
##OCOM
##OCESS
multichannel
Struc
955
TSN
TSSP
comes
comment
com2010
scope
DMQ
DMPI
DMBS
DMIP
DEI
DEV
DESA
DECC
DEAP
Harmon
DRCA
DRSS
DRES
DRST
DRED
2212
##LAPACK
##WLBP
Flash3D
CVaR
Word2000
CoG
Coat
Coff
CoGIS
CoDel
CoCADTool
checker
##endrick
##icht
DFSSM
EPL
EPMS
EPOLL
EP7312
##iveness
Wince
Win2K
267
##toch
##elete
##ermination
##rows
##GSR
Anth
Angular
TSPN
TSPSO
##cles
##clinux
##cliue
TC1
TCPS
TCache
TCHo
##165
##16C550
SPINAL
##FPF
Theta
Thumb
Logistics
MBO
MBH
MBLA
MBRC
AMiner
AMARF
RPO
DataS
Radarsat
Radiography
PICC
PITL
WiKey
DLMA
DLEP
DLIA
DLCPG
ObectArx
##TMR
##1111
CNV
CNMF
CNONIX
Trf
Tran
Trader
Trunk
Trickle
Travelling
interchange
MEAM
MEFS
MEOE
##DCOM
##prof
##property
Transmitter
648
701
70dB
Phenom
##ostric
OWLDL
introspection
NATOPS
28d
ArcObect
Applie
animal
anger
Blast
Bladed
Blakley
Blundo
##DII
Asyn
Asset
FCIS
FCGAP
AdaBoostSVM
Geode
990
996
998
99SE
MANETS
##meeting
MFO
##oxTool
MicrosoftEx
CMMOPSO
##8576
PMPS
##2560
PPIS
PPDP
PPMC
##extension
Images
usually
##shir
##shake
logit
##IBD
INs
INSA
INVF
INSADL
FACA
FASB
FACADE
FAIMM
GME
GMG
GMTR
ESCP
ESOM
CHB
CHR
CHAN
CHEP
CHARM
dealing
deals
definite
Fors
MOIS
MOSA
MOOD
disturb
35kV
989
983
VHD
VHE
VHf
3GHz
271
277
##89A
##1420
##13000
OFFO
OFBN
MTK
MT9
MTH
MTOM
MTAT
Comba
Compens
HuCRF
IBMC
IBBE
MaxC
Maxs
MaxFP
CIPN
CIIT
CIEDE
FSCA
FSFS
FSRCNN
SEMS
SERP
SEFS
SEAS
SOMA
CESM
CEDAR
CENTR
LTD
PBOM
PBCC
PBRT
PBDE
GBF
GBIS
GBOM
GBDI
GB70
Results
Respons
Zernik
Weak
Weiser
Weapon
IMCS
AAO
BICM
BIQI
BITLOCK
SWA
SWOP
SWOA
MASNs
GoogleScholar
Modify
Modelling
##mincon
SLMP
SLSPM
Veron
Vertical
CPSUI
LBs
MMN
MMDP
MMKP
stra
struc
458
PAWS
STEPAP
299
PDSS
PDOP
ISO2022
CLLS
TVB
TVA
Gridport
GSMS
GSRP
BPEL4P
EAs
EAPS
CRD
CRG
CRW
bytecode
Carol
Caroti
968
MIM0
NDSS
recency
recovered
TDK
TDRA
unsupervised
uncorrelated
##Share
LDO
LDSP
LDmesh
AGN
AGE
QRDC
Schr
GrADS
Gravitational
Moon
MoRe
##7020
iSlip
MLBP
RCSS
##LASC
player
plaintext
AVD
AVSP
ELMR
ELMC
ELMs
ELMAN
truncation
##BAL
PEDP
PEVs
PEQUI
PEARL
LCD12864
##188
##1800
##1860
##18Ni9
##logm
337
335
RAID0
Recommender
##mbL
DESIGN
GraphOLAP
LAW
NAGA
NApriori
NAMPD
SIM300
SIMECK
PLMS
PLGA
PLCM
PLPP
PLTC
PLZT
Ontol
OntoT
ECCV
HPCS
HPGSA
128MB
855
BSI
TRMA
TRED
TRNG
BMN
Distortion
PTF
PTCM
NNCS
NNIA
GMMs
induction
[...]
